{
  "version": "1.0",
  "truncation": null,
  "padding": null,
  "added_tokens": [
    {
      "id": 0,
      "content": "[UNK]",
      "single_word": false,
      "lstrip": false,
      "rstrip": false,
      "normalized": false,
      "special": true
    },
    {
      "id": 1,
      "content": "[CLS]",
      "single_word": false,
      "lstrip": false,
      "rstrip": false,
      "normalized": false,
      "special": true
    },
    {
      "id": 2,
      "content": "[SEP]",
      "single_word": false,
      "lstrip": false,
      "rstrip": false,
      "normalized": false,
      "special": true
    },
    {
      "id": 3,
      "content": "[PAD]",
      "single_word": false,
      "lstrip": false,
      "rstrip": false,
      "normalized": false,
      "special": true
    },
    {
      "id": 4,
      "content": "[MASK]",
      "single_word": false,
      "lstrip": false,
      "rstrip": false,
      "normalized": false,
      "special": true
    }
  ],
  "normalizer": {
    "type": "Sequence",
    "normalizers": [
      {
        "type": "NFD"
      }
    ]
  },
  "pre_tokenizer": {
    "type": "Whitespace"
  },
  "post_processor": null,
  "decoder": {
    "type": "BPEDecoder",
    "suffix": "</w>"
  },
  "model": {
    "type": "BPE",
    "dropout": null,
    "unk_token": "[UNK]",
    "continuing_subword_prefix": null,
    "end_of_word_suffix": null,
    "fuse_unk": false,
    "byte_fallback": false,
    "ignore_merges": false,
    "vocab": {
      "[UNK]": 0,
      "[CLS]": 1,
      "[SEP]": 2,
      "[PAD]": 3,
      "[MASK]": 4,
      "\u0001": 5,
      "\u0002": 6,
      "\u0003": 7,
      "\u0004": 8,
      "\u0005": 9,
      "\u0006": 10,
      "\b": 11,
      "\u000e": 12,
      "\u000f": 13,
      "\u0010": 14,
      "\u0011": 15,
      "\u0012": 16,
      "\u0013": 17,
      "\u0014": 18,
      "\u0015": 19,
      "\u0016": 20,
      "\u0017": 21,
      "\u0018": 22,
      "\u0019": 23,
      "\u001a": 24,
      "\u001b": 25,
      "\u001c": 26,
      "\u001d": 27,
      "\u001e": 28,
      "\u001f": 29,
      "!": 30,
      "\"": 31,
      "#": 32,
      "$": 33,
      "%": 34,
      "&": 35,
      "'": 36,
      "(": 37,
      ")": 38,
      "*": 39,
      "+": 40,
      ",": 41,
      "-": 42,
      ".": 43,
      "/": 44,
      "0": 45,
      "1": 46,
      "2": 47,
      "3": 48,
      "4": 49,
      "5": 50,
      "6": 51,
      "7": 52,
      "8": 53,
      "9": 54,
      ":": 55,
      ";": 56,
      "<": 57,
      "=": 58,
      ">": 59,
      "?": 60,
      "@": 61,
      "A": 62,
      "B": 63,
      "C": 64,
      "D": 65,
      "E": 66,
      "F": 67,
      "G": 68,
      "H": 69,
      "I": 70,
      "J": 71,
      "K": 72,
      "L": 73,
      "M": 74,
      "N": 75,
      "O": 76,
      "P": 77,
      "Q": 78,
      "R": 79,
      "S": 80,
      "T": 81,
      "U": 82,
      "V": 83,
      "W": 84,
      "X": 85,
      "Y": 86,
      "Z": 87,
      "[": 88,
      "\\": 89,
      "]": 90,
      "^": 91,
      "_": 92,
      "`": 93,
      "a": 94,
      "b": 95,
      "c": 96,
      "d": 97,
      "e": 98,
      "f": 99,
      "g": 100,
      "h": 101,
      "i": 102,
      "j": 103,
      "k": 104,
      "l": 105,
      "m": 106,
      "n": 107,
      "o": 108,
      "p": 109,
      "q": 110,
      "r": 111,
      "s": 112,
      "t": 113,
      "u": 114,
      "v": 115,
      "w": 116,
      "x": 117,
      "y": 118,
      "z": 119,
      "{": 120,
      "|": 121,
      "}": 122,
      "~": 123,
      "": 124,
      "": 125,
      "": 126,
      "": 127,
      "": 128,
      "": 129,
      "": 130,
      "": 131,
      "": 132,
      "": 133,
      "": 134,
      "": 135,
      "": 136,
      "": 137,
      "": 138,
      "": 139,
      "": 140,
      "": 141,
      "": 142,
      "": 143,
      "¡": 144,
      "¢": 145,
      "£": 146,
      "¤": 147,
      "¥": 148,
      "¦": 149,
      "§": 150,
      "¨": 151,
      "©": 152,
      "ª": 153,
      "«": 154,
      "¬": 155,
      "­": 156,
      "®": 157,
      "¯": 158,
      "°": 159,
      "±": 160,
      "²": 161,
      "³": 162,
      "´": 163,
      "µ": 164,
      "¶": 165,
      "·": 166,
      "¸": 167,
      "¹": 168,
      "º": 169,
      "»": 170,
      "¼": 171,
      "½": 172,
      "¾": 173,
      "¿": 174,
      "Æ": 175,
      "Ð": 176,
      "×": 177,
      "Ø": 178,
      "Þ": 179,
      "ß": 180,
      "æ": 181,
      "ð": 182,
      "÷": 183,
      "ø": 184,
      "þ": 185,
      "Đ": 186,
      "đ": 187,
      "ħ": 188,
      "ı": 189,
      "Ł": 190,
      "ł": 191,
      "Œ": 192,
      "œ": 193,
      "Ŧ": 194,
      "ŧ": 195,
      "ƒ": 196,
      "ɏ": 197,
      "ɑ": 198,
      "ɡ": 199,
      "ɾ": 200,
      "ʊ": 201,
      "ʘ": 202,
      "ʡ": 203,
      "ʱ": 204,
      "˄": 205,
      "ˆ": 206,
      "ˈ": 207,
      "ː": 208,
      "˜": 209,
      "̀": 210,
      "́": 211,
      "̂": 212,
      "̃": 213,
      "̄": 214,
      "̆": 215,
      "̇": 216,
      "̈": 217,
      "̉": 218,
      "̊": 219,
      "̋": 220,
      "̌": 221,
      "̏": 222,
      "̔": 223,
      "̛": 224,
      "̣": 225,
      "̦": 226,
      "̧": 227,
      "̨": 228,
      "̸": 229,
      "ͳ": 230,
      "Γ": 231,
      "Λ": 232,
      "Ξ": 233,
      "Ω": 234,
      "α": 235,
      "β": 236,
      "η": 237,
      "λ": 238,
      "μ": 239,
      "π": 240,
      "σ": 241,
      "χ": 242,
      "ϵ": 243,
      "А": 244,
      "И": 245,
      "К": 246,
      "С": 247,
      "Т": 248,
      "Ч": 249,
      "Ю": 250,
      "Я": 251,
      "а": 252,
      "б": 253,
      "в": 254,
      "г": 255,
      "д": 256,
      "е": 257,
      "ж": 258,
      "з": 259,
      "и": 260,
      "к": 261,
      "л": 262,
      "м": 263,
      "н": 264,
      "о": 265,
      "п": 266,
      "р": 267,
      "с": 268,
      "т": 269,
      "у": 270,
      "ф": 271,
      "х": 272,
      "ц": 273,
      "ч": 274,
      "ш": 275,
      "ы": 276,
      "ь": 277,
      "ю": 278,
      "я": 279,
      "є": 280,
      "і": 281,
      "ј": 282,
      "ѵ": 283,
      "ҳ": 284,
      "Ԃ": 285,
      "Խ": 286,
      "Ս": 287,
      "ء": 288,
      "ا": 289,
      "ب": 290,
      "ة": 291,
      "ت": 292,
      "ث": 293,
      "ج": 294,
      "ح": 295,
      "خ": 296,
      "د": 297,
      "ذ": 298,
      "ر": 299,
      "ز": 300,
      "س": 301,
      "ش": 302,
      "ص": 303,
      "ض": 304,
      "ط": 305,
      "ظ": 306,
      "ع": 307,
      "غ": 308,
      "ف": 309,
      "ق": 310,
      "ك": 311,
      "ل": 312,
      "م": 313,
      "ن": 314,
      "ه": 315,
      "و": 316,
      "ى": 317,
      "ي": 318,
      "ً": 319,
      "ِ": 320,
      "ٓ": 321,
      "ٕ": 322,
      "پ": 323,
      "ک": 324,
      "گ": 325,
      "ی": 326,
      "ې": 327,
      "۱": 328,
      "߶": 329,
      "ࠨ": 330,
      "ࡢ": 331,
      "ৰ": 332,
      "৿": 333,
      "ૃ": 334,
      "૾": 335,
      "గ": 336,
      "చ": 337,
      "త": 338,
      "న": 339,
      "బ": 340,
      "మ": 341,
      "ల": 342,
      "వ": 343,
      "ి": 344,
      "ు": 345,
      "ె": 346,
      "్": 347,
      "ౖ": 348,
      "ಧ": 349,
      "ൟ": 350,
      "ൿ": 351,
      "ช": 352,
      "ญ": 353,
      "น": 354,
      "บ": 355,
      "ม": 356,
      "ย": 357,
      "ร": 358,
      "ล": 359,
      "ส": 360,
      "อ": 361,
      "ะ": 362,
      "ั": 363,
      "ิ": 364,
      "ี": 365,
      "ไ": 366,
      "็": 367,
      "์": 368,
      "๑": 369,
      "༔": 370,
      "ྪ": 371,
      "࿗": 372,
      "စ": 373,
      "ᄀ": 374,
      "ᄁ": 375,
      "ᄂ": 376,
      "ᄃ": 377,
      "ᄄ": 378,
      "ᄅ": 379,
      "ᄆ": 380,
      "ᄇ": 381,
      "ᄈ": 382,
      "ᄉ": 383,
      "ᄊ": 384,
      "ᄋ": 385,
      "ᄌ": 386,
      "ᄎ": 387,
      "ᄏ": 388,
      "ᄐ": 389,
      "ᄑ": 390,
      "ᄒ": 391,
      "ᅡ": 392,
      "ᅢ": 393,
      "ᅣ": 394,
      "ᅤ": 395,
      "ᅥ": 396,
      "ᅦ": 397,
      "ᅧ": 398,
      "ᅨ": 399,
      "ᅩ": 400,
      "ᅪ": 401,
      "ᅫ": 402,
      "ᅭ": 403,
      "ᅮ": 404,
      "ᅯ": 405,
      "ᅰ": 406,
      "ᅲ": 407,
      "ᅳ": 408,
      "ᅴ": 409,
      "ᅵ": 410,
      "ᆨ": 411,
      "ᆩ": 412,
      "ᆪ": 413,
      "ᆫ": 414,
      "ᆬ": 415,
      "ᆭ": 416,
      "ᆯ": 417,
      "ᆰ": 418,
      "ᆱ": 419,
      "ᆲ": 420,
      "ᆳ": 421,
      "ᆴ": 422,
      "ᆵ": 423,
      "ᆶ": 424,
      "ᆷ": 425,
      "ᆸ": 426,
      "ᆹ": 427,
      "ᆺ": 428,
      "ᆼ": 429,
      "ᆽ": 430,
      "ᆾ": 431,
      "ᇁ": 432,
      "ᇂ": 433,
      "ᇱ": 434,
      "អ": 435,
      "ុ": 436,
      "ᢘ": 437,
      "ᩚ": 438,
      "᪗": 439,
      "᭥": 440,
      "ᰀ": 441,
      "ᰦ": 442,
      "​": 443,
      "‌": 444,
      "‎": 445,
      "‏": 446,
      "‐": 447,
      "‑": 448,
      "–": 449,
      "—": 450,
      "‘": 451,
      "’": 452,
      "‚": 453,
      "“": 454,
      "”": 455,
      "„": 456,
      "†": 457,
      "‡": 458,
      "•": 459,
      "…": 460,
      "‪": 461,
      "‬": 462,
      "‰": 463,
      "′": 464,
      "″": 465,
      "‹": 466,
      "›": 467,
      "⁀": 468,
      "⁃": 469,
      "⁠": 470,
      "⁨": 471,
      "⁩": 472,
      "⁰": 473,
      "€": 474,
      "℀": 475,
      "℅": 476,
      "™": 477,
      "Ⅱ": 478,
      "ⅵ": 479,
      "←": 480,
      "↑": 481,
      "→": 482,
      "↓": 483,
      "↘": 484,
      "⇒": 485,
      "⇓": 486,
      "∕": 487,
      "√": 488,
      "∰": 489,
      "≈": 490,
      "≡": 491,
      "≤": 492,
      "⋆": 493,
      "⋮": 494,
      "⍼": 495,
      "⏆": 496,
      "⒨": 497,
      "─": 498,
      "━": 499,
      "│": 500,
      "┃": 501,
      "┌": 502,
      "┏": 503,
      "┐": 504,
      "┓": 505,
      "└": 506,
      "┗": 507,
      "┘": 508,
      "┛": 509,
      "├": 510,
      "┣": 511,
      "┤": 512,
      "┫": 513,
      "┬": 514,
      "┳": 515,
      "┴": 516,
      "┻": 517,
      "╋": 518,
      "═": 519,
      "║": 520,
      "╔": 521,
      "╗": 522,
      "╚": 523,
      "╝": 524,
      "╠": 525,
      "╦": 526,
      "╩": 527,
      "╭": 528,
      "╮": 529,
      "╯": 530,
      "╰": 531,
      "╱": 532,
      "╼": 533,
      "▀": 534,
      "▄": 535,
      "█": 536,
      "▌": 537,
      "▐": 538,
      "░": 539,
      "▒": 540,
      "▓": 541,
      "▪": 542,
      "▲": 543,
      "▶": 544,
      "▸": 545,
      "►": 546,
      "▼": 547,
      "●": 548,
      "☠": 549,
      "♥": 550,
      "⚡": 551,
      "⛕": 552,
      "✐": 553,
      "✓": 554,
      "✔": 555,
      "✗": 556,
      "✘": 557,
      "❌": 558,
      "❤": 559,
      "➜": 560,
      "➤": 561,
      "➦": 562,
      "➹": 563,
      "⠁": 564,
      "⠂": 565,
      "⠃": 566,
      "⠄": 567,
      "⠈": 568,
      "⠊": 569,
      "⠍": 570,
      "⠐": 571,
      "⠑": 572,
      "⠒": 573,
      "⠓": 574,
      "⠗": 575,
      "⠘": 576,
      "⠙": 577,
      "⠚": 578,
      "⠠": 579,
      "⠤": 580,
      "⠬": 581,
      "⡀": 582,
      "⡂": 583,
      "⡄": 584,
      "⡅": 585,
      "⡆": 586,
      "⡇": 587,
      "⡈": 588,
      "⡉": 589,
      "⡊": 590,
      "⡋": 591,
      "⡌": 592,
      "⡍": 593,
      "⡎": 594,
      "⡏": 595,
      "⡐": 596,
      "⡑": 597,
      "⡒": 598,
      "⡓": 599,
      "⡔": 600,
      "⡕": 601,
      "⡖": 602,
      "⡗": 603,
      "⡘": 604,
      "⡙": 605,
      "⡚": 606,
      "⡛": 607,
      "⡜": 608,
      "⡝": 609,
      "⡞": 610,
      "⡟": 611,
      "⡠": 612,
      "⡡": 613,
      "⡢": 614,
      "⡣": 615,
      "⡤": 616,
      "⡥": 617,
      "⡦": 618,
      "⡧": 619,
      "⡨": 620,
      "⡩": 621,
      "⡪": 622,
      "⡫": 623,
      "⡬": 624,
      "⡭": 625,
      "⡮": 626,
      "⡯": 627,
      "⡰": 628,
      "⡱": 629,
      "⡲": 630,
      "⡳": 631,
      "⡴": 632,
      "⡵": 633,
      "⡶": 634,
      "⡷": 635,
      "⡸": 636,
      "⡹": 637,
      "⡺": 638,
      "⡻": 639,
      "⡼": 640,
      "⡽": 641,
      "⡾": 642,
      "⡿": 643,
      "⢀": 644,
      "⢁": 645,
      "⢂": 646,
      "⢃": 647,
      "⢄": 648,
      "⢅": 649,
      "⢆": 650,
      "⢇": 651,
      "⢈": 652,
      "⢉": 653,
      "⢊": 654,
      "⢋": 655,
      "⢌": 656,
      "⢍": 657,
      "⢎": 658,
      "⢏": 659,
      "⢐": 660,
      "⢑": 661,
      "⢒": 662,
      "⢓": 663,
      "⢔": 664,
      "⢕": 665,
      "⢖": 666,
      "⢗": 667,
      "⢘": 668,
      "⢙": 669,
      "⢚": 670,
      "⢛": 671,
      "⢜": 672,
      "⢝": 673,
      "⢞": 674,
      "⢟": 675,
      "⢠": 676,
      "⢡": 677,
      "⢢": 678,
      "⢣": 679,
      "⢤": 680,
      "⢥": 681,
      "⢦": 682,
      "⢧": 683,
      "⢨": 684,
      "⢩": 685,
      "⢪": 686,
      "⢫": 687,
      "⢬": 688,
      "⢭": 689,
      "⢮": 690,
      "⢯": 691,
      "⢰": 692,
      "⢱": 693,
      "⢲": 694,
      "⢳": 695,
      "⢴": 696,
      "⢵": 697,
      "⢶": 698,
      "⢷": 699,
      "⢸": 700,
      "⢹": 701,
      "⢺": 702,
      "⢻": 703,
      "⢼": 704,
      "⢽": 705,
      "⢾": 706,
      "⢿": 707,
      "⣀": 708,
      "⣁": 709,
      "⣂": 710,
      "⣃": 711,
      "⣄": 712,
      "⣅": 713,
      "⣆": 714,
      "⣇": 715,
      "⣈": 716,
      "⣉": 717,
      "⣊": 718,
      "⣋": 719,
      "⣌": 720,
      "⣍": 721,
      "⣎": 722,
      "⣏": 723,
      "⣐": 724,
      "⣑": 725,
      "⣒": 726,
      "⣓": 727,
      "⣔": 728,
      "⣕": 729,
      "⣖": 730,
      "⣗": 731,
      "⣘": 732,
      "⣙": 733,
      "⣚": 734,
      "⣛": 735,
      "⣜": 736,
      "⣝": 737,
      "⣞": 738,
      "⣟": 739,
      "⣠": 740,
      "⣡": 741,
      "⣢": 742,
      "⣣": 743,
      "⣤": 744,
      "⣥": 745,
      "⣦": 746,
      "⣧": 747,
      "⣨": 748,
      "⣩": 749,
      "⣪": 750,
      "⣫": 751,
      "⣬": 752,
      "⣭": 753,
      "⣮": 754,
      "⣯": 755,
      "⣰": 756,
      "⣱": 757,
      "⣲": 758,
      "⣳": 759,
      "⣴": 760,
      "⣵": 761,
      "⣶": 762,
      "⣷": 763,
      "⣸": 764,
      "⣹": 765,
      "⣺": 766,
      "⣻": 767,
      "⣼": 768,
      "⣽": 769,
      "⣾": 770,
      "⣿": 771,
      "⤀": 772,
      "⤁": 773,
      "⤂": 774,
      "⤃": 775,
      "⤄": 776,
      "⤅": 777,
      "⤆": 778,
      "⤇": 779,
      "⤈": 780,
      "⤉": 781,
      "⤊": 782,
      "⤋": 783,
      "⤌": 784,
      "⤍": 785,
      "⤎": 786,
      "⤏": 787,
      "⤐": 788,
      "⤑": 789,
      "⤒": 790,
      "⤓": 791,
      "⤔": 792,
      "⤕": 793,
      "⤖": 794,
      "⤗": 795,
      "⤘": 796,
      "⤙": 797,
      "⤚": 798,
      "⤛": 799,
      "⤜": 800,
      "⤝": 801,
      "⤞": 802,
      "⤟": 803,
      "⤠": 804,
      "⤡": 805,
      "⤢": 806,
      "⤣": 807,
      "⤤": 808,
      "⤥": 809,
      "⤦": 810,
      "⤧": 811,
      "⤨": 812,
      "⤩": 813,
      "⤪": 814,
      "⤫": 815,
      "⤬": 816,
      "⤭": 817,
      "⤮": 818,
      "⤯": 819,
      "⤰": 820,
      "⤱": 821,
      "⤲": 822,
      "⤳": 823,
      "⤴": 824,
      "⤵": 825,
      "⤶": 826,
      "⤷": 827,
      "⤸": 828,
      "⤹": 829,
      "⤺": 830,
      "⤻": 831,
      "⤼": 832,
      "⤽": 833,
      "⤾": 834,
      "⤿": 835,
      "⥀": 836,
      "⥁": 837,
      "⥂": 838,
      "⥃": 839,
      "⥄": 840,
      "⥅": 841,
      "⥆": 842,
      "⥇": 843,
      "⥈": 844,
      "⥉": 845,
      "⥊": 846,
      "⥋": 847,
      "⥌": 848,
      "⥍": 849,
      "⥎": 850,
      "⥏": 851,
      "⥐": 852,
      "⥑": 853,
      "⥒": 854,
      "⥓": 855,
      "⥔": 856,
      "⥕": 857,
      "⥖": 858,
      "⥗": 859,
      "⥘": 860,
      "⥙": 861,
      "⥚": 862,
      "⥛": 863,
      "⥜": 864,
      "⥝": 865,
      "⥞": 866,
      "⥟": 867,
      "⥠": 868,
      "⥡": 869,
      "⥢": 870,
      "⥣": 871,
      "⥤": 872,
      "⥥": 873,
      "⥦": 874,
      "⥧": 875,
      "⥨": 876,
      "⥩": 877,
      "⥪": 878,
      "⥫": 879,
      "⥬": 880,
      "⥭": 881,
      "⥮": 882,
      "⥯": 883,
      "⥰": 884,
      "⥱": 885,
      "⥲": 886,
      "⥳": 887,
      "⥴": 888,
      "⥵": 889,
      "⥶": 890,
      "⥷": 891,
      "⥸": 892,
      "⥹": 893,
      "⥺": 894,
      "⥻": 895,
      "⥼": 896,
      "⥽": 897,
      "⥾": 898,
      "⥿": 899,
      "⦀": 900,
      "⦁": 901,
      "⦂": 902,
      "⦃": 903,
      "⦄": 904,
      "⦅": 905,
      "⦆": 906,
      "⦇": 907,
      "⦈": 908,
      "⦉": 909,
      "⦊": 910,
      "⦋": 911,
      "⦌": 912,
      "⦍": 913,
      "⦎": 914,
      "⦏": 915,
      "⦐": 916,
      "⦑": 917,
      "⦒": 918,
      "⦓": 919,
      "⦔": 920,
      "⦕": 921,
      "⦖": 922,
      "⦗": 923,
      "⦘": 924,
      "⦙": 925,
      "⦚": 926,
      "⦛": 927,
      "⦜": 928,
      "⦝": 929,
      "⦞": 930,
      "⦟": 931,
      "⦠": 932,
      "⦡": 933,
      "⦢": 934,
      "⦣": 935,
      "⦤": 936,
      "⦥": 937,
      "⦦": 938,
      "⦧": 939,
      "⦨": 940,
      "⦩": 941,
      "⦪": 942,
      "⦫": 943,
      "⦬": 944,
      "⦭": 945,
      "⦮": 946,
      "⦯": 947,
      "⦰": 948,
      "⦱": 949,
      "⦲": 950,
      "⦳": 951,
      "⦴": 952,
      "⦵": 953,
      "⦶": 954,
      "⦷": 955,
      "⦸": 956,
      "⦹": 957,
      "⦺": 958,
      "⦻": 959,
      "⦼": 960,
      "⦽": 961,
      "⦾": 962,
      "⦿": 963,
      "⧀": 964,
      "⧁": 965,
      "⧂": 966,
      "⧃": 967,
      "⧄": 968,
      "⧅": 969,
      "⧆": 970,
      "⧇": 971,
      "⧈": 972,
      "⧉": 973,
      "⧊": 974,
      "⧋": 975,
      "⧌": 976,
      "⧍": 977,
      "⧎": 978,
      "⧏": 979,
      "⧐": 980,
      "⧑": 981,
      "⧒": 982,
      "⧓": 983,
      "⧔": 984,
      "⧕": 985,
      "⧖": 986,
      "⧗": 987,
      "⧘": 988,
      "⧙": 989,
      "⧚": 990,
      "⧛": 991,
      "⧜": 992,
      "⧝": 993,
      "⧞": 994,
      "⧟": 995,
      "⧠": 996,
      "⧡": 997,
      "⧢": 998,
      "⧣": 999,
      "⧤": 1000,
      "⧥": 1001,
      "⧦": 1002,
      "⧧": 1003,
      "⧨": 1004,
      "⧩": 1005,
      "⧪": 1006,
      "⧫": 1007,
      "⧬": 1008,
      "⧭": 1009,
      "⧮": 1010,
      "⧯": 1011,
      "⧰": 1012,
      "⧱": 1013,
      "⧲": 1014,
      "⧳": 1015,
      "⧴": 1016,
      "⧵": 1017,
      "⧶": 1018,
      "⧷": 1019,
      "⧸": 1020,
      "⧹": 1021,
      "⧺": 1022,
      "⧻": 1023,
      "⧼": 1024,
      "⧽": 1025,
      "⧾": 1026,
      "⧿": 1027,
      "⨀": 1028,
      "⨁": 1029,
      "⨂": 1030,
      "⨃": 1031,
      "⨄": 1032,
      "⨅": 1033,
      "⨆": 1034,
      "⨇": 1035,
      "⨈": 1036,
      "⨉": 1037,
      "⨊": 1038,
      "⨋": 1039,
      "⨌": 1040,
      "⨍": 1041,
      "⨎": 1042,
      "⨏": 1043,
      "⨐": 1044,
      "⨑": 1045,
      "⨒": 1046,
      "⨓": 1047,
      "⨔": 1048,
      "⨕": 1049,
      "⨖": 1050,
      "⨗": 1051,
      "⨘": 1052,
      "⨙": 1053,
      "⨚": 1054,
      "⨛": 1055,
      "⨜": 1056,
      "⨝": 1057,
      "⨞": 1058,
      "⨟": 1059,
      "⨠": 1060,
      "⨡": 1061,
      "⨢": 1062,
      "⨣": 1063,
      "⨤": 1064,
      "⨥": 1065,
      "⨦": 1066,
      "⨧": 1067,
      "⨨": 1068,
      "⨩": 1069,
      "⨪": 1070,
      "⨫": 1071,
      "⨬": 1072,
      "⨭": 1073,
      "⨮": 1074,
      "⨯": 1075,
      "⨰": 1076,
      "⨱": 1077,
      "⨲": 1078,
      "⨳": 1079,
      "⨴": 1080,
      "⨵": 1081,
      "⨶": 1082,
      "⨷": 1083,
      "⨸": 1084,
      "⨹": 1085,
      "⨺": 1086,
      "⨻": 1087,
      "⨼": 1088,
      "⨽": 1089,
      "⨾": 1090,
      "⨿": 1091,
      "⩀": 1092,
      "⩁": 1093,
      "⩂": 1094,
      "⩃": 1095,
      "⩄": 1096,
      "⩅": 1097,
      "⩆": 1098,
      "⩇": 1099,
      "⩈": 1100,
      "⩉": 1101,
      "⩊": 1102,
      "⩋": 1103,
      "⩌": 1104,
      "⩍": 1105,
      "⩎": 1106,
      "⩏": 1107,
      "⩐": 1108,
      "⩑": 1109,
      "⩒": 1110,
      "⩓": 1111,
      "⩔": 1112,
      "⩕": 1113,
      "⩖": 1114,
      "⩗": 1115,
      "⩘": 1116,
      "⩙": 1117,
      "⩚": 1118,
      "⩛": 1119,
      "⩜": 1120,
      "⩝": 1121,
      "⩞": 1122,
      "⩟": 1123,
      "⩠": 1124,
      "⩡": 1125,
      "⩢": 1126,
      "⩣": 1127,
      "⩤": 1128,
      "⩥": 1129,
      "⩦": 1130,
      "⩧": 1131,
      "⩨": 1132,
      "⩩": 1133,
      "⩪": 1134,
      "⩫": 1135,
      "⩬": 1136,
      "⩭": 1137,
      "⩮": 1138,
      "⩯": 1139,
      "⩰": 1140,
      "⩱": 1141,
      "⩲": 1142,
      "⩳": 1143,
      "⩴": 1144,
      "⩵": 1145,
      "⩶": 1146,
      "⩷": 1147,
      "⩸": 1148,
      "⩹": 1149,
      "⩺": 1150,
      "⩻": 1151,
      "⩼": 1152,
      "⩽": 1153,
      "⩾": 1154,
      "⩿": 1155,
      "⪀": 1156,
      "⪁": 1157,
      "⪂": 1158,
      "⪃": 1159,
      "⪄": 1160,
      "⪅": 1161,
      "⪆": 1162,
      "⪇": 1163,
      "⪈": 1164,
      "⪉": 1165,
      "⪊": 1166,
      "⪋": 1167,
      "⪌": 1168,
      "⪍": 1169,
      "⪎": 1170,
      "⪏": 1171,
      "⪐": 1172,
      "⪑": 1173,
      "⪒": 1174,
      "⪓": 1175,
      "⪔": 1176,
      "⪕": 1177,
      "⪖": 1178,
      "⪗": 1179,
      "⪘": 1180,
      "⪙": 1181,
      "⪚": 1182,
      "⪛": 1183,
      "⪜": 1184,
      "⪝": 1185,
      "⪞": 1186,
      "⪟": 1187,
      "⪠": 1188,
      "⪡": 1189,
      "⪢": 1190,
      "⪣": 1191,
      "⪤": 1192,
      "⪥": 1193,
      "⪦": 1194,
      "⪧": 1195,
      "⪨": 1196,
      "⪩": 1197,
      "⪪": 1198,
      "⪫": 1199,
      "⪬": 1200,
      "⪭": 1201,
      "⪮": 1202,
      "⪯": 1203,
      "⪰": 1204,
      "⪱": 1205,
      "⪲": 1206,
      "⪳": 1207,
      "⪴": 1208,
      "⪵": 1209,
      "⪶": 1210,
      "⪷": 1211,
      "⪸": 1212,
      "⪹": 1213,
      "⪺": 1214,
      "⪻": 1215,
      "⪼": 1216,
      "⪽": 1217,
      "⪾": 1218,
      "⪿": 1219,
      "⫀": 1220,
      "⫁": 1221,
      "⫂": 1222,
      "⫃": 1223,
      "⫄": 1224,
      "⫅": 1225,
      "⫆": 1226,
      "⫇": 1227,
      "⫈": 1228,
      "⫉": 1229,
      "⫊": 1230,
      "⫋": 1231,
      "⫌": 1232,
      "⫍": 1233,
      "⫎": 1234,
      "⫏": 1235,
      "⫐": 1236,
      "⫑": 1237,
      "⫒": 1238,
      "⫓": 1239,
      "⫔": 1240,
      "⫕": 1241,
      "⫖": 1242,
      "⫗": 1243,
      "⫘": 1244,
      "⫙": 1245,
      "⫚": 1246,
      "⫛": 1247,
      "⫝": 1248,
      "⫞": 1249,
      "⫟": 1250,
      "⫠": 1251,
      "⫡": 1252,
      "⫢": 1253,
      "⫣": 1254,
      "⫤": 1255,
      "⫥": 1256,
      "⫦": 1257,
      "⫧": 1258,
      "⫨": 1259,
      "⫩": 1260,
      "⫪": 1261,
      "⫫": 1262,
      "⫬": 1263,
      "⫭": 1264,
      "⫮": 1265,
      "⫯": 1266,
      "⫰": 1267,
      "⫱": 1268,
      "⫲": 1269,
      "⫳": 1270,
      "⫴": 1271,
      "⫵": 1272,
      "⫶": 1273,
      "⫷": 1274,
      "⫸": 1275,
      "⫹": 1276,
      "⫺": 1277,
      "⫻": 1278,
      "⫼": 1279,
      "⫽": 1280,
      "⫾": 1281,
      "⫿": 1282,
      "⬀": 1283,
      "⬁": 1284,
      "⬂": 1285,
      "⬃": 1286,
      "⬄": 1287,
      "⬅": 1288,
      "⬆": 1289,
      "⬇": 1290,
      "⬈": 1291,
      "⬉": 1292,
      "⬊": 1293,
      "⬋": 1294,
      "⬌": 1295,
      "⬍": 1296,
      "⬎": 1297,
      "⬏": 1298,
      "⬐": 1299,
      "⬑": 1300,
      "⬒": 1301,
      "⬓": 1302,
      "⬔": 1303,
      "⬕": 1304,
      "⬖": 1305,
      "⬗": 1306,
      "⬘": 1307,
      "⬙": 1308,
      "⬚": 1309,
      "⬛": 1310,
      "⬜": 1311,
      "⬝": 1312,
      "⬞": 1313,
      "⬟": 1314,
      "⬠": 1315,
      "⬡": 1316,
      "⬢": 1317,
      "⬣": 1318,
      "⬤": 1319,
      "⬥": 1320,
      "⬦": 1321,
      "⬧": 1322,
      "⬨": 1323,
      "⬩": 1324,
      "⬪": 1325,
      "⬫": 1326,
      "⬬": 1327,
      "⬭": 1328,
      "⬮": 1329,
      "⬯": 1330,
      "⬰": 1331,
      "⬱": 1332,
      "⬲": 1333,
      "⬳": 1334,
      "⬴": 1335,
      "⬵": 1336,
      "⬶": 1337,
      "⬷": 1338,
      "⬸": 1339,
      "⬹": 1340,
      "⬺": 1341,
      "⬻": 1342,
      "⬼": 1343,
      "⬽": 1344,
      "⬾": 1345,
      "⬿": 1346,
      "⭀": 1347,
      "⭁": 1348,
      "⭂": 1349,
      "⭃": 1350,
      "⭄": 1351,
      "⭅": 1352,
      "⭆": 1353,
      "⭇": 1354,
      "⭈": 1355,
      "⭉": 1356,
      "⭊": 1357,
      "⭋": 1358,
      "⭌": 1359,
      "⭍": 1360,
      "⭎": 1361,
      "⭏": 1362,
      "⭐": 1363,
      "⭑": 1364,
      "⭒": 1365,
      "⭓": 1366,
      "⭔": 1367,
      "⭕": 1368,
      "⭖": 1369,
      "⭗": 1370,
      "⭘": 1371,
      "⭙": 1372,
      "⭚": 1373,
      "⭛": 1374,
      "⭜": 1375,
      "⭝": 1376,
      "⭞": 1377,
      "⭟": 1378,
      "⭠": 1379,
      "⭡": 1380,
      "⭢": 1381,
      "⭣": 1382,
      "⭤": 1383,
      "⭥": 1384,
      "⭦": 1385,
      "⭧": 1386,
      "⭨": 1387,
      "⭩": 1388,
      "⭪": 1389,
      "⭫": 1390,
      "⭬": 1391,
      "⭭": 1392,
      "⭮": 1393,
      "⭯": 1394,
      "⭰": 1395,
      "⭱": 1396,
      "⭲": 1397,
      "⭳": 1398,
      "⭶": 1399,
      "⭷": 1400,
      "⭸": 1401,
      "⭹": 1402,
      "⭺": 1403,
      "⭻": 1404,
      "⭼": 1405,
      "⭽": 1406,
      "⭾": 1407,
      "⭿": 1408,
      "⮀": 1409,
      "⮁": 1410,
      "⮂": 1411,
      "⮃": 1412,
      "⮄": 1413,
      "⮅": 1414,
      "⮆": 1415,
      "⮇": 1416,
      "⮈": 1417,
      "⮉": 1418,
      "⮊": 1419,
      "⮋": 1420,
      "⮌": 1421,
      "⮍": 1422,
      "⮎": 1423,
      "⮏": 1424,
      "⮐": 1425,
      "⮑": 1426,
      "⮒": 1427,
      "⮓": 1428,
      "⮔": 1429,
      "⮕": 1430,
      "⮘": 1431,
      "⮙": 1432,
      "⮚": 1433,
      "⮛": 1434,
      "⮜": 1435,
      "⮝": 1436,
      "⮞": 1437,
      "⮟": 1438,
      "⮠": 1439,
      "⮡": 1440,
      "⮢": 1441,
      "⮣": 1442,
      "⮤": 1443,
      "⮥": 1444,
      "⮦": 1445,
      "⮧": 1446,
      "⮨": 1447,
      "⮩": 1448,
      "⮪": 1449,
      "⮫": 1450,
      "⮬": 1451,
      "⮭": 1452,
      "⮮": 1453,
      "⮯": 1454,
      "⮰": 1455,
      "⮱": 1456,
      "⮲": 1457,
      "⮳": 1458,
      "⮴": 1459,
      "⮵": 1460,
      "⮶": 1461,
      "⮷": 1462,
      "⮸": 1463,
      "⮹": 1464,
      "⮽": 1465,
      "⮾": 1466,
      "⮿": 1467,
      "⯀": 1468,
      "⯁": 1469,
      "⯂": 1470,
      "⯃": 1471,
      "⯄": 1472,
      "⯅": 1473,
      "⯆": 1474,
      "⯇": 1475,
      "⯈": 1476,
      "⯊": 1477,
      "⯋": 1478,
      "⯌": 1479,
      "⯍": 1480,
      "⯎": 1481,
      "⯏": 1482,
      "⯐": 1483,
      "⯑": 1484,
      "⯒": 1485,
      "⯬": 1486,
      "⯭": 1487,
      "⯮": 1488,
      "⯯": 1489,
      "Ⰰ": 1490,
      "Ⰱ": 1491,
      "Ⰲ": 1492,
      "Ⰳ": 1493,
      "Ⰴ": 1494,
      "Ⰵ": 1495,
      "Ⰶ": 1496,
      "Ⰷ": 1497,
      "Ⰸ": 1498,
      "Ⰹ": 1499,
      "Ⰺ": 1500,
      "Ⰻ": 1501,
      "Ⰼ": 1502,
      "Ⰽ": 1503,
      "Ⰾ": 1504,
      "Ⰿ": 1505,
      "Ⱀ": 1506,
      "Ⱁ": 1507,
      "Ⱂ": 1508,
      "Ⱃ": 1509,
      "Ⱄ": 1510,
      "Ⱅ": 1511,
      "Ⱆ": 1512,
      "Ⱇ": 1513,
      "Ⱈ": 1514,
      "Ⱉ": 1515,
      "Ⱊ": 1516,
      "Ⱋ": 1517,
      "Ⱌ": 1518,
      "Ⱍ": 1519,
      "Ⱎ": 1520,
      "Ⱏ": 1521,
      "Ⱐ": 1522,
      "Ⱑ": 1523,
      "Ⱒ": 1524,
      "Ⱓ": 1525,
      "Ⱔ": 1526,
      "Ⱕ": 1527,
      "Ⱖ": 1528,
      "Ⱗ": 1529,
      "Ⱘ": 1530,
      "Ⱙ": 1531,
      "Ⱚ": 1532,
      "Ⱛ": 1533,
      "Ⱜ": 1534,
      "Ⱝ": 1535,
      "Ⱞ": 1536,
      "ⰰ": 1537,
      "ⰱ": 1538,
      "ⰲ": 1539,
      "ⰳ": 1540,
      "ⰴ": 1541,
      "ⰵ": 1542,
      "ⰶ": 1543,
      "ⰷ": 1544,
      "ⰸ": 1545,
      "ⰹ": 1546,
      "ⰺ": 1547,
      "ⰻ": 1548,
      "ⰼ": 1549,
      "ⰽ": 1550,
      "ⰾ": 1551,
      "ⰿ": 1552,
      "ⱀ": 1553,
      "ⱁ": 1554,
      "ⱂ": 1555,
      "ⱃ": 1556,
      "ⱄ": 1557,
      "ⱅ": 1558,
      "ⱆ": 1559,
      "ⱇ": 1560,
      "ⱈ": 1561,
      "ⱉ": 1562,
      "ⱊ": 1563,
      "ⱋ": 1564,
      "ⱌ": 1565,
      "ⱍ": 1566,
      "ⱎ": 1567,
      "ⱏ": 1568,
      "ⱐ": 1569,
      "ⱑ": 1570,
      "ⱒ": 1571,
      "ⱓ": 1572,
      "ⱔ": 1573,
      "ⱕ": 1574,
      "ⱖ": 1575,
      "ⱗ": 1576,
      "ⱘ": 1577,
      "ⱙ": 1578,
      "ⱚ": 1579,
      "ⱛ": 1580,
      "ⱜ": 1581,
      "ⱝ": 1582,
      "ⱞ": 1583,
      "Ⱡ": 1584,
      "ⱡ": 1585,
      "Ɫ": 1586,
      "Ᵽ": 1587,
      "Ɽ": 1588,
      "ⱥ": 1589,
      "ⱦ": 1590,
      "Ⱨ": 1591,
      "ⱨ": 1592,
      "Ⱪ": 1593,
      "ⱪ": 1594,
      "Ⱬ": 1595,
      "ⱬ": 1596,
      "Ɑ": 1597,
      "Ɱ": 1598,
      "Ɐ": 1599,
      "Ɒ": 1600,
      "ⱱ": 1601,
      "Ⱳ": 1602,
      "ⱳ": 1603,
      "ⱴ": 1604,
      "Ⱶ": 1605,
      "ⱶ": 1606,
      "ⱷ": 1607,
      "ⱸ": 1608,
      "ⱹ": 1609,
      "ⱺ": 1610,
      "ⴇ": 1611,
      "⸕": 1612,
      "⾩": 1613,
      "、": 1614,
      "。": 1615,
      "〈": 1616,
      "あ": 1617,
      "く": 1618,
      "け": 1619,
      "さ": 1620,
      "す": 1621,
      "つ": 1622,
      "の": 1623,
      "ら": 1624,
      "ん": 1625,
      "゙": 1626,
      "イ": 1627,
      "エ": 1628,
      "サ": 1629,
      "シ": 1630,
      "ス": 1631,
      "タ": 1632,
      "ッ": 1633,
      "ツ": 1634,
      "テ": 1635,
      "ト": 1636,
      "ネ": 1637,
      "ハ": 1638,
      "フ": 1639,
      "ム": 1640,
      "ル": 1641,
      "レ": 1642,
      "ン": 1643,
      "ー": 1644,
      "ㅅ": 1645,
      "ㆾ": 1646,
      "㉿": 1647,
      "㛡": 1648,
      "㠙": 1649,
      "㡕": 1650,
      "㬭": 1651,
      "㸵": 1652,
      "㹂": 1653,
      "㹇": 1654,
      "㾾": 1655,
      "㿺": 1656,
      "䄚": 1657,
      "䅥": 1658,
      "䇛": 1659,
      "䊌": 1660,
      "䌷": 1661,
      "䍠": 1662,
      "䎤": 1663,
      "䔗": 1664,
      "䙌": 1665,
      "䙝": 1666,
      "䠖": 1667,
      "䤮": 1668,
      "䥎": 1669,
      "䨌": 1670,
      "䭘": 1671,
      "䳊": 1672,
      "䳘": 1673,
      "䷪": 1674,
      "一": 1675,
      "三": 1676,
      "上": 1677,
      "下": 1678,
      "东": 1679,
      "个": 1680,
      "中": 1681,
      "临": 1682,
      "主": 1683,
      "义": 1684,
      "之": 1685,
      "乎": 1686,
      "乐": 1687,
      "九": 1688,
      "书": 1689,
      "了": 1690,
      "云": 1691,
      "互": 1692,
      "京": 1693,
      "人": 1694,
      "付": 1695,
      "代": 1696,
      "以": 1697,
      "件": 1698,
      "份": 1699,
      "伟": 1700,
      "体": 1701,
      "作": 1702,
      "使": 1703,
      "侠": 1704,
      "保": 1705,
      "信": 1706,
      "修": 1707,
      "停": 1708,
      "傁": 1709,
      "光": 1710,
      "克": 1711,
      "入": 1712,
      "公": 1713,
      "兰": 1714,
      "关": 1715,
      "具": 1716,
      "内": 1717,
      "写": 1718,
      "农": 1719,
      "准": 1720,
      "出": 1721,
      "分": 1722,
      "列": 1723,
      "创": 1724,
      "删": 1725,
      "制": 1726,
      "刷": 1727,
      "前": 1728,
      "办": 1729,
      "功": 1730,
      "动": 1731,
      "勼": 1732,
      "化": 1733,
      "北": 1734,
      "千": 1735,
      "升": 1736,
      "卓": 1737,
      "博": 1738,
      "卝": 1739,
      "厅": 1740,
      "厔": 1741,
      "厦": 1742,
      "参": 1743,
      "友": 1744,
      "发": 1745,
      "取": 1746,
      "口": 1747,
      "可": 1748,
      "台": 1749,
      "司": 1750,
      "合": 1751,
      "吉": 1752,
      "名": 1753,
      "后": 1754,
      "吟": 1755,
      "否": 1756,
      "告": 1757,
      "呕": 1758,
      "咂": 1759,
      "和": 1760,
      "品": 1761,
      "响": 1762,
      "唁": 1763,
      "唗": 1764,
      "商": 1765,
      "啊": 1766,
      "嗲": 1767,
      "器": 1768,
      "四": 1769,
      "国": 1770,
      "图": 1771,
      "在": 1772,
      "场": 1773,
      "坦": 1774,
      "城": 1775,
      "塀": 1776,
      "壳": 1777,
      "备": 1778,
      "多": 1779,
      "大": 1780,
      "失": 1781,
      "头": 1782,
      "奶": 1783,
      "好": 1784,
      "如": 1785,
      "嬑": 1786,
      "子": 1787,
      "字": 1788,
      "存": 1789,
      "学": 1790,
      "宁": 1791,
      "安": 1792,
      "完": 1793,
      "定": 1794,
      "宝": 1795,
      "客": 1796,
      "容": 1797,
      "小": 1798,
      "就": 1799,
      "屋": 1800,
      "山": 1801,
      "屸": 1802,
      "峇": 1803,
      "峰": 1804,
      "川": 1805,
      "州": 1806,
      "工": 1807,
      "市": 1808,
      "布": 1809,
      "帆": 1810,
      "带": 1811,
      "帰": 1812,
      "平": 1813,
      "并": 1814,
      "广": 1815,
      "庋": 1816,
      "库": 1817,
      "应": 1818,
      "店": 1819,
      "庞": 1820,
      "建": 1821,
      "开": 1822,
      "式": 1823,
      "当": 1824,
      "影": 1825,
      "待": 1826,
      "徕": 1827,
      "得": 1828,
      "微": 1829,
      "德": 1830,
      "徽": 1831,
      "快": 1832,
      "思": 1833,
      "息": 1834,
      "悀": 1835,
      "您": 1836,
      "悸": 1837,
      "意": 1838,
      "感": 1839,
      "慮": 1840,
      "懮": 1841,
      "成": 1842,
      "戬": 1843,
      "户": 1844,
      "技": 1845,
      "择": 1846,
      "拴": 1847,
      "持": 1848,
      "据": 1849,
      "捴": 1850,
      "接": 1851,
      "控": 1852,
      "推": 1853,
      "提": 1854,
      "插": 1855,
      "搒": 1856,
      "搜": 1857,
      "摌": 1858,
      "播": 1859,
      "操": 1860,
      "攞": 1861,
      "支": 1862,
      "收": 1863,
      "改": 1864,
      "放": 1865,
      "教": 1866,
      "数": 1867,
      "整": 1868,
      "文": 1869,
      "新": 1870,
      "方": 1871,
      "无": 1872,
      "日": 1873,
      "旭": 1874,
      "明": 1875,
      "易": 1876,
      "是": 1877,
      "智": 1878,
      "最": 1879,
      "月": 1880,
      "有": 1881,
      "朗": 1882,
      "未": 1883,
      "本": 1884,
      "术": 1885,
      "朴": 1886,
      "朵": 1887,
      "机": 1888,
      "权": 1889,
      "材": 1890,
      "条": 1891,
      "杭": 1892,
      "板": 1893,
      "林": 1894,
      "标": 1895,
      "桡": 1896,
      "植": 1897,
      "榓": 1898,
      "樆": 1899,
      "模": 1900,
      "横": 1901,
      "櫰": 1902,
      "欢": 1903,
      "正": 1904,
      "求": 1905,
      "江": 1906,
      "沈": 1907,
      "沙": 1908,
      "洞": 1909,
      "活": 1910,
      "浃": 1911,
      "测": 1912,
      "浙": 1913,
      "海": 1914,
      "淘": 1915,
      "源": 1916,
      "滤": 1917,
      "漏": 1918,
      "演": 1919,
      "漳": 1920,
      "灯": 1921,
      "灵": 1922,
      "点": 1923,
      "烙": 1924,
      "牀": 1925,
      "版": 1926,
      "牛": 1927,
      "特": 1928,
      "犀": 1929,
      "狐": 1930,
      "狮": 1931,
      "猫": 1932,
      "王": 1933,
      "现": 1934,
      "珑": 1935,
      "珹": 1936,
      "理": 1937,
      "琣": 1938,
      "瑞": 1939,
      "用": 1940,
      "田": 1941,
      "由": 1942,
      "甲": 1943,
      "电": 1944,
      "畅": 1945,
      "留": 1946,
      "略": 1947,
      "畹": 1948,
      "登": 1949,
      "百": 1950,
      "的": 1951,
      "直": 1952,
      "相": 1953,
      "省": 1954,
      "看": 1955,
      "睿": 1956,
      "知": 1957,
      "砘": 1958,
      "砜": 1959,
      "示": 1960,
      "福": 1961,
      "科": 1962,
      "程": 1963,
      "穑": 1964,
      "站": 1965,
      "章": 1966,
      "等": 1967,
      "签": 1968,
      "简": 1969,
      "算": 1970,
      "管": 1971,
      "精": 1972,
      "系": 1973,
      "紟": 1974,
      "素": 1975,
      "索": 1976,
      "結": 1977,
      "红": 1978,
      "级": 1979,
      "纵": 1980,
      "纹": 1981,
      "线": 1982,
      "络": 1983,
      "统": 1984,
      "综": 1985,
      "缀": 1986,
      "网": 1987,
      "美": 1988,
      "羮": 1989,
      "考": 1990,
      "联": 1991,
      "聽": 1992,
      "肁": 1993,
      "股": 1994,
      "胖": 1995,
      "能": 1996,
      "腾": 1997,
      "自": 1998,
      "舄": 1999,
      "舗": 2000,
      "花": 2001,
      "茄": 2002,
      "荒": 2003,
      "获": 2004,
      "蒸": 2005,
      "薵": 2006,
      "蛋": 2007,
      "蛴": 2008,
      "蜒": 2009,
      "行": 2010,
      "表": 2011,
      "装": 2012,
      "褅": 2013,
      "褓": 2014,
      "觅": 2015,
      "视": 2016,
      "言": 2017,
      "讍": 2018,
      "计": 2019,
      "讯": 2020,
      "论": 2021,
      "设": 2022,
      "证": 2023,
      "评": 2024,
      "试": 2025,
      "误": 2026,
      "说": 2027,
      "请": 2028,
      "课": 2029,
      "谀": 2030,
      "谢": 2031,
      "豆": 2032,
      "象": 2033,
      "豩": 2034,
      "贝": 2035,
      "财": 2036,
      "败": 2037,
      "货": 2038,
      "贵": 2039,
      "费": 2040,
      "资": 2041,
      "起": 2042,
      "跑": 2043,
      "跔": 2044,
      "跟": 2045,
      "路": 2046,
      "车": 2047,
      "转": 2048,
      "软": 2049,
      "轹": 2050,
      "载": 2051,
      "辋": 2052,
      "达": 2053,
      "迅": 2054,
      "过": 2055,
      "迎": 2056,
      "还": 2057,
      "进": 2058,
      "远": 2059,
      "送": 2060,
      "选": 2061,
      "通": 2062,
      "速": 2063,
      "部": 2064,
      "酱": 2065,
      "采": 2066,
      "野": 2067,
      "金": 2068,
      "鈤": 2069,
      "鋊": 2070,
      "鎢": 2071,
      "鑆": 2072,
      "钉": 2073,
      "钛": 2074,
      "钜": 2075,
      "银": 2076,
      "链": 2077,
      "错": 2078,
      "长": 2079,
      "门": 2080,
      "闪": 2081,
      "闻": 2082,
      "陆": 2083,
      "陊": 2084,
      "限": 2085,
      "除": 2086,
      "险": 2087,
      "随": 2088,
      "雄": 2089,
      "集": 2090,
      "雑": 2091,
      "雨": 2092,
      "零": 2093,
      "雷": 2094,
      "音": 2095,
      "顯": 2096,
      "页": 2097,
      "顶": 2098,
      "项": 2099,
      "顺": 2100,
      "频": 2101,
      "题": 2102,
      "风": 2103,
      "飞": 2104,
      "餐": 2105,
      "马": 2106,
      "验": 2107,
      "髇": 2108,
      "高": 2109,
      "鱼": 2110,
      "鸽": 2111,
      "鼠": 2112,
      "龂": 2113,
      "ꄌ": 2114,
      "ꎢ": 2115,
      "ꔗ": 2116,
      "ꕵ": 2117,
      "꘎": 2118,
      "ꤤ": 2119,
      "ꦑ": 2120,
      "ꪰ": 2121,
      "ퟹ": 2122,
      "": 2123,
      "": 2124,
      "": 2125,
      "": 2126,
      "": 2127,
      "": 2128,
      "": 2129,
      "": 2130,
      "": 2131,
      "": 2132,
      "": 2133,
      "": 2134,
      "": 2135,
      "": 2136,
      "": 2137,
      "": 2138,
      "": 2139,
      "": 2140,
      "": 2141,
      "": 2142,
      "": 2143,
      "": 2144,
      "": 2145,
      "": 2146,
      "": 2147,
      "": 2148,
      "": 2149,
      "": 2150,
      "ﬁ": 2151,
      "ﲈ": 2152,
      "ﳷ": 2153,
      "﷌": 2154,
      "️": 2155,
      "﹍": 2156,
      "﻿": 2157,
      "！": 2158,
      "（": 2159,
      "）": 2160,
      "，": 2161,
      "．": 2162,
      "：": 2163,
      "＞": 2164,
      "￹": 2165,
      "￺": 2166,
      "￻": 2167,
      "￼": 2168,
      "�": 2169,
      "￿": 2170,
      "🌍": 2171,
      "🏜": 2172,
      "📦": 2173,
      "📷": 2174,
      "🔲": 2175,
      "🚀": 2176,
      "𢡊": 2177,
      "er": 2178,
      "00": 2179,
      "es": 2180,
      "it": 2181,
      "or": 2182,
      "in": 2183,
      "ht": 2184,
      "co": 2185,
      "en": 2186,
      "tp": 2187,
      "http": 2188,
      "ec": 2189,
      ":/": 2190,
      "://": 2191,
      "on": 2192,
      "at": 2193,
      "is": 2194,
      "20": 2195,
      "com": 2196,
      "an": 2197,
      "--": 2198,
      "le": 2199,
      "ww": 2200,
      "0x": 2201,
      "ion": 2202,
      "re": 2203,
      "th": 2204,
      "ity": 2205,
      "al": 2206,
      "ro": 2207,
      "ur": 2208,
      "lo": 2209,
      "ac": 2210,
      "||": 2211,
      "ar": 2212,
      "https": 2213,
      "ul": 2214,
      "ed": 2215,
      "==": 2216,
      "sec": 2217,
      "il": 2218,
      "us": 2219,
      "ad": 2220,
      "ab": 2221,
      "to": 2222,
      "urity": 2223,
      "ef": 2224,
      "x00": 2225,
      "201": 2226,
      "ic": 2227,
      "security": 2228,
      "un": 2229,
      "ces": 2230,
      "as": 2231,
      "www": 2232,
      "----": 2233,
      "ri": 2234,
      "ex": 2235,
      "tion": 2236,
      "id": 2237,
      "the": 2238,
      "et": 2239,
      "10": 2240,
      "ent": 2241,
      "ing": 2242,
      "st": 2243,
      "ch": 2244,
      "org": 2245,
      "uln": 2246,
      "eren": 2247,
      "of": 2248,
      "erab": 2249,
      "Ref": 2250,
      "ulnerab": 2251,
      "ack": 2252,
      "erences": 2253,
      "References": 2254,
      "and": 2255,
      "de": 2256,
      "ff": 2257,
      "ulnerabil": 2258,
      "ies": 2259,
      "ap": 2260,
      "x4": 2261,
      "AA": 2262,
      "CV": 2263,
      "====": 2264,
      "200": 2265,
      "CVE": 2266,
      "ce": 2267,
      "rip": 2268,
      "crip": 2269,
      "su": 2270,
      "x0": 2271,
      "ts": 2272,
      "ge": 2273,
      "0x00": 2274,
      "ver": 2275,
      "vulnerabil": 2276,
      "ation": 2277,
      "te": 2278,
      "for": 2279,
      "11": 2280,
      "yp": 2281,
      "oc": 2282,
      "ml": 2283,
      "x6": 2284,
      "vis": 2285,
      "x3": 2286,
      "\"\\": 2287,
      "el": 2288,
      "visor": 2289,
      "html": 2290,
      "am": 2291,
      "ect": 2292,
      "x5": 2293,
      "202": 2294,
      "0000": 2295,
      "41": 2296,
      "no": 2297,
      "AD": 2298,
      "Pro": 2299,
      "tr": 2300,
      "ble": 2301,
      "advisor": 2302,
      "--------": 2303,
      "mo": 2304,
      "x7": 2305,
      "tions": 2306,
      "lis": 2307,
      "plo": 2308,
      "bu": 2309,
      "12": 2310,
      "low": 2311,
      "SA": 2312,
      "ith": 2313,
      "Des": 2314,
      "fi": 2315,
      "ss": 2316,
      "x8": 2317,
      "vi": 2318,
      "op": 2319,
      "Typ": 2320,
      "pro": 2321,
      "Descrip": 2322,
      "blem": 2323,
      "res": 2324,
      "Descriptions": 2325,
      "ort": 2326,
      "x2": 2327,
      "vulnerability": 2328,
      "int": 2329,
      "ub": 2330,
      "acker": 2331,
      "att": 2332,
      "con": 2333,
      "Problem": 2334,
      "Types": 2335,
      "ve": 2336,
      "pl": 2337,
      "advisories": 2338,
      "ploit": 2339,
      "age": 2340,
      "13": 2341,
      "ph": 2342,
      "ADP": 2343,
      "he": 2344,
      "eb": 2345,
      "25": 2346,
      ",,": 2347,
      "16": 2348,
      "port": 2349,
      "40": 2350,
      "15": 2351,
      "Ch": 2352,
      "em": 2353,
      "up": 2354,
      "In": 2355,
      "AAAA": 2356,
      ");": 2357,
      "ut": 2358,
      "dat": 2359,
      "do": 2360,
      "**": 2361,
      "x9": 2362,
      "========": 2363,
      "19": 2364,
      "18": 2365,
      "30": 2366,
      "se": 2367,
      "17": 2368,
      "php": 2369,
      "lists": 2370,
      "exploit": 2371,
      "ay": 2372,
      "ser": 2373,
      "14": 2374,
      "ti": 2375,
      "be": 2376,
      "cess": 2377,
      "val": 2378,
      "xF": 2379,
      ")&": 2380,
      "open": 2381,
      "ite": 2382,
      "22": 2383,
      "allow": 2384,
      "attacker": 2385,
      "Chr": 2386,
      "po": 2387,
      "sion": 2388,
      "arch": 2389,
      "qu": 2390,
      "ib": 2391,
      "wor": 2392,
      "mote": 2393,
      "use": 2394,
      "per": 2395,
      "user": 2396,
      "24": 2397,
      "23": 2398,
      "ities": 2399,
      "03": 2400,
      "28": 2401,
      "26": 2402,
      "ocus": 2403,
      "ple": 2404,
      "end": 2405,
      "__": 2406,
      "focus": 2407,
      "27": 2408,
      "securityfocus": 2409,
      "ore": 2410,
      "29": 2411,
      "ms": 2412,
      "clo": 2413,
      "db": 2414,
      "08": 2415,
      "all": 2416,
      "pr": 2417,
      "ame": 2418,
      "if": 2419,
      "ithub": 2420,
      "github": 2421,
      "ho": 2422,
      "..": 2423,
      "ass": 2424,
      "ag": 2425,
      "mit": 2426,
      "05": 2427,
      "ter": 2428,
      "01": 2429,
      "ment": 2430,
      "iz": 2431,
      "09": 2432,
      "vulnerabilities": 2433,
      "ia": 2434,
      "are": 2435,
      "code": 2436,
      "cript": 2437,
      "aa": 2438,
      "\",": 2439,
      "04": 2440,
      "06": 2441,
      "Re": 2442,
      "vic": 2443,
      "xC": 2444,
      "07": 2445,
      "uth": 2446,
      "ol": 2447,
      "sup": 2448,
      "36": 2449,
      "ain": 2450,
      "form": 2451,
      "able": 2452,
      "bug": 2453,
      "/)": 2454,
      "35": 2455,
      "im": 2456,
      "remote": 2457,
      "web": 2458,
      "cont": 2459,
      "ary": 2460,
      "ail": 2461,
      "bid": 2462,
      "----------------": 2463,
      "anno": 2464,
      "ug": 2465,
      "xE": 2466,
      "est": 2467,
      "red": 2468,
      "ir": 2469,
      "unce": 2470,
      "announce": 2471,
      "ud": 2472,
      "37": 2473,
      "HSA": 2474,
      "du": 2475,
      "wh": 2476,
      "allows": 2477,
      "cl": 2478,
      "48": 2479,
      "xD": 2480,
      "45": 2481,
      "sa": 2482,
      "38": 2483,
      "ew": 2484,
      "net": 2485,
      "via": 2486,
      "issu": 2487,
      "46": 2488,
      "SE": 2489,
      "ecu": 2490,
      "with": 2491,
      "The": 2492,
      "unia": 2493,
      "file": 2494,
      "',": 2495,
      "39": 2496,
      "secunia": 2497,
      "support": 2498,
      "ate": 2499,
      "OS": 2500,
      "by": 2501,
      "ject": 2502,
      "ial": 2503,
      "xB": 2504,
      "ection": 2505,
      "log": 2506,
      "Th": 2507,
      "ig": 2508,
      "chan": 2509,
      "47": 2510,
      "print": 2511,
      "SS": 2512,
      "=\"": 2513,
      "so": 2514,
      ">*": 2515,
      "read": 2516,
      "dis": 2517,
      ">*>*": 2518,
      "access": 2519,
      "bit": 2520,
      "49": 2521,
      "vice": 2522,
      "efore": 2523,
      "def": 2524,
      "oo": 2525,
      "rary": 2526,
      "ication": 2527,
      "02": 2528,
      "ive": 2529,
      "before": 2530,
      "Ex": 2531,
      "RHSA": 2532,
      "auth": 2533,
      "ibm": 2534,
      "version": 2535,
      "2016": 2536,
      "ly": 2537,
      "ress": 2538,
      "af": 2539,
      "##": 2540,
      "cr": 2541,
      "nel": 2542,
      "par": 2543,
      "loc": 2544,
      "Con": 2545,
      "oval": 2546,
      "ory": 2547,
      "xA": 2548,
      "pack": 2549,
      "AAAAAAAA": 2550,
      "name": 2551,
      "err": 2552,
      "word": 2553,
      "arg": 2554,
      "ian": 2555,
      "bitrary": 2556,
      "me": 2557,
      "ker": 2558,
      "this": 2559,
      "lin": 2560,
      "fo": 2561,
      "2019": 2562,
      "****": 2563,
      "ross": 2564,
      "HT": 2565,
      "ps": 2566,
      "Co": 2567,
      "pri": 2568,
      "can": 2569,
      "sp": 2570,
      "execu": 2571,
      "\".": 2572,
      "00000000": 2573,
      "dow": 2574,
      "2015": 2575,
      "ated": 2576,
      "99": 2577,
      "ase": 2578,
      "add": 2579,
      "ill": 2580,
      "arbitrary": 2581,
      "attackers": 2582,
      "65": 2583,
      "str": 2584,
      "xf": 2585,
      "sy": 2586,
      "Ser": 2587,
      "xc": 2588,
      "100": 2589,
      "min": 2590,
      "SU": 2591,
      "msg": 2592,
      "change": 2593,
      "doc": 2594,
      "requ": 2595,
      "iv": 2596,
      "jection": 2597,
      "An": 2598,
      "site": 2599,
      "This": 2600,
      "data": 2601,
      "ert": 2602,
      "58": 2603,
      "suse": 2604,
      "git": 2605,
      "================": 2606,
      "buff": 2607,
      "rom": 2608,
      "ext": 2609,
      "sh": 2610,
      "opensuse": 2611,
      "kernel": 2612,
      "deb": 2613,
      "66": 2614,
      "xx": 2615,
      "ak": 2616,
      "::": 2617,
      "32": 2618,
      "not": 2619,
      "oft": 2620,
      "QL": 2621,
      "bo": 2622,
      "79": 2623,
      "exploits": 2624,
      "pat": 2625,
      "WE": 2626,
      "cloud": 2627,
      "debian": 2628,
      "ted": 2629,
      "(\"": 2630,
      ",\"": 2631,
      "2017": 2632,
      "SQL": 2633,
      "stem": 2634,
      "ile": 2635,
      "2020": 2636,
      "88": 2637,
      "und": 2638,
      "io": 2639,
      "0x41": 2640,
      "cripting": 2641,
      "x1": 2642,
      "43": 2643,
      "that": 2644,
      "force": 2645,
      "um": 2646,
      "55": 2647,
      "2018": 2648,
      "hat": 2649,
      "x01": 2650,
      "xe": 2651,
      "CWE": 2652,
      "77": 2653,
      "aff": 2654,
      "2006": 2655,
      "fil": 2656,
      "Vulnerabil": 2657,
      "redhat": 2658,
      "eng": 2659,
      "2008": 2660,
      "exchange": 2661,
      "x30": 2662,
      "69": 2663,
      "xforce": 2664,
      "ecurity": 2665,
      "ibmcloud": 2666,
      "ected": 2667,
      "work": 2668,
      "ess": 2669,
      "put": 2670,
      "ct": 2671,
      "mand": 2672,
      "os": 2673,
      "ata": 2674,
      "33": 2675,
      "=>": 2676,
      "ulti": 2677,
      "updat": 2678,
      "uld": 2679,
      "indow": 2680,
      "ip": 2681,
      "68": 2682,
      "ca": 2683,
      "vile": 2684,
      "21": 2685,
      "\";": 2686,
      "load": 2687,
      "3A": 2688,
      "ugin": 2689,
      "78": 2690,
      "Ad": 2691,
      "ll": 2692,
      "2023": 2693,
      "OR": 2694,
      "sit": 2695,
      "ind": 2696,
      "proper": 2697,
      "urce": 2698,
      "commit": 2699,
      "ue": 2700,
      "ware": 2701,
      "2007": 2702,
      "64": 2703,
      "issue": 2704,
      "US": 2705,
      "mp": 2706,
      "2022": 2707,
      "2021": 2708,
      "flow": 2709,
      "indows": 2710,
      "from": 2711,
      "75": 2712,
      "ives": 2713,
      "x41": 2714,
      "ache": 2715,
      "2024": 2716,
      "authent": 2717,
      "ult": 2718,
      "DB": 2719,
      "()": 2720,
      "ich": 2721,
      "av": 2722,
      "44": 2723,
      "formation": 2724,
      "acle": 2725,
      "archives": 2726,
      "oss": 2727,
      "ux": 2728,
      "Cross": 2729,
      "ultiple": 2730,
      "li": 2731,
      "2013": 2732,
      "isco": 2733,
      "unt": 2734,
      "plugin": 2735,
      "ret": 2736,
      "execute": 2737,
      "fed": 2738,
      "tracker": 2739,
      "versions": 2740,
      "ell": 2741,
      "set": 2742,
      "/?": 2743,
      "xb": 2744,
      "soft": 2745,
      "ock": 2746,
      "ther": 2747,
      "~~": 2748,
      "fedor": 2749,
      "unc": 2750,
      "sure": 2751,
      "den": 2752,
      "xd": 2753,
      "2010": 2754,
      "59": 2755,
      "($": 2756,
      "admin": 2757,
      "gi": 2758,
      "plication": 2759,
      "89": 2760,
      "UR": 2761,
      "xff": 2762,
      "securitytracker": 2763,
      "cert": 2764,
      "advisory": 2765,
      "2009": 2766,
      "apps": 2767,
      "may": 2768,
      "out": 2769,
      "000": 2770,
      "0x6": 2771,
      "tx": 2772,
      "aaaa": 2773,
      "ize": 2774,
      "let": 2775,
      "cp": 2776,
      "thread": 2777,
      "man": 2778,
      "roject": 2779,
      "which": 2780,
      "Vulnerability": 2781,
      "verflow": 2782,
      "++": 2783,
      "aproject": 2784,
      "fedoraproject": 2785,
      "x20": 2786,
      "files": 2787,
      "attack": 2788,
      ",,,,": 2789,
      "2014": 2790,
      "has": 2791,
      "could": 2792,
      "('": 2793,
      ">*>*>*>*": 2794,
      "illa": 2795,
      "ers": 2796,
      "service": 2797,
      "errata": 2798,
      "art": 2799,
      "txt": 2800,
      "issues": 2801,
      "cgi": 2802,
      "zilla": 2803,
      "Cont": 2804,
      "67": 2805,
      "Web": 2806,
      "ifi": 2807,
      "privile": 2808,
      "80": 2809,
      "FF": 2810,
      "webapps": 2811,
      "func": 2812,
      "cve": 2813,
      "34": 2814,
      "TP": 2815,
      "St": 2816,
      "gen": 2817,
      "view": 2818,
      "XSS": 2819,
      "pass": 2820,
      "closure": 2821,
      "apple": 2822,
      "ful": 2823,
      "pon": 2824,
      "ie": 2825,
      "ech": 2826,
      "server": 2827,
      "df": 2828,
      "____": 2829,
      "2012": 2830,
      "),": 2831,
      "Man": 2832,
      "ition": 2833,
      "produ": 2834,
      "request": 2835,
      "Security": 2836,
      "??": 2837,
      "content": 2838,
      "Im": 2839,
      "ID": 2840,
      "info": 2841,
      "lish": 2842,
      "MS": 2843,
      "57": 2844,
      "ob": 2845,
      "gr": 2846,
      "local": 2847,
      "spec": 2848,
      "source": 2849,
      "sho": 2850,
      "=-": 2851,
      "one": 2852,
      "56": 2853,
      "icro": 2854,
      "LE": 2855,
      "param": 2856,
      "application": 2857,
      ").": 2858,
      "2011": 2859,
      "inter": 2860,
      "97": 2861,
      "press": 2862,
      "mem": 2863,
      "ffff": 2864,
      "ke": 2865,
      "Server": 2866,
      "VDB": 2867,
      "gu": 2868,
      "mis": 2869,
      "sock": 2870,
      "####": 2871,
      "stable": 2872,
      "xFF": 2873,
      "gl": 2874,
      "AAAAAAAAAAAAAAAA": 2875,
      "search": 2876,
      "tra": 2877,
      "ED": 2878,
      "98": 2879,
      "ullet": 2880,
      "ulletin": 2881,
      "typ": 2882,
      "')": 2883,
      "der": 2884,
      "update": 2885,
      "IN": 2886,
      "injection": 2887,
      "system": 2888,
      "irect": 2889,
      "ccess": 2890,
      "->": 2891,
      "eck": 2892,
      "icated": 2893,
      "SUSE": 2894,
      "list": 2895,
      "0x7": 2896,
      "AP": 2897,
      "=-=-": 2898,
      "new": 2899,
      "function": 2900,
      "ot": 2901,
      "was": 2902,
      "xa": 2903,
      ".$": 2904,
      "********": 2905,
      "apache": 2906,
      "AR": 2907,
      "HP": 2908,
      "31": 2909,
      "incl": 2910,
      "paramet": 2911,
      "bulletin": 2912,
      "information": 2913,
      "urn": 2914,
      "host": 2915,
      "get": 2916,
      "ash": 2917,
      "Scripting": 2918,
      "kb": 2919,
      "users": 2920,
      "50": 2921,
      "path": 2922,
      "--------------------------------": 2923,
      "packet": 2924,
      "ified": 2925,
      "Sy": 2926,
      "url": 2927,
      "mail": 2928,
      "authenticated": 2929,
      "wn": 2930,
      "input": 2931,
      "char": 2932,
      "ET": 2933,
      "ace": 2934,
      "command": 2935,
      "english": 2936,
      "icrosoft": 2937,
      "x45": 2938,
      "Site": 2939,
      "script": 2940,
      "osv": 2941,
      "craf": 2942,
      "ign": 2943,
      "osvdb": 2944,
      "ure": 2945,
      "index": 2946,
      "md": 2947,
      "ization": 2948,
      "od": 2949,
      "ree": 2950,
      "ADV": 2951,
      "0x25": 2952,
      "ear": 2953,
      "affected": 2954,
      "ard": 2955,
      "Windows": 2956,
      "ery": 2957,
      "Injection": 2958,
      "ugh": 2959,
      "En": 2960,
      "\");": 2961,
      "ine": 2962,
      "_s": 2963,
      "mess": 2964,
      "wr": 2965,
      "96": 2966,
      "mitre": 2967,
      "show": 2968,
      "86": 2969,
      "42": 2970,
      "unk": 2971,
      "Remote": 2972,
      "package": 2973,
      "Un": 2974,
      "upen": 2975,
      "vupen": 2976,
      "vul": 2977,
      "wordpress": 2978,
      "archive": 2979,
      "IT": 2980,
      "buffer": 2981,
      "ber": 2982,
      "lib": 2983,
      "crafted": 2984,
      "</": 2985,
      "95": 2986,
      "ulnerable": 2987,
      "my": 2988,
      "mal": 2989,
      "ne": 2990,
      "USN": 2991,
      "ible": 2992,
      "cause": 2993,
      "return": 2994,
      "page": 2995,
      "rele": 2996,
      "main": 2997,
      "\")": 2998,
      "ach": 2999,
      "arget": 3000,
      "des": 3001,
      "ument": 3002,
      "Com": 3003,
      "Or": 3004,
      "76": 3005,
      "File": 3006,
      "rough": 3007,
      "85": 3008,
      "xxxx": 3009,
      "IO": 3010,
      "gle": 3011,
      "ok": 3012,
      "ist": 3013,
      "lob": 3014,
      "network": 3015,
      "ere": 3016,
      "ges": 3017,
      "2005": 3018,
      "disclosure": 3019,
      "inte": 3020,
      "printf": 3021,
      "sub": 3022,
      "Ap": 3023,
      "type": 3024,
      "ased": 3025,
      "through": 3026,
      "ql": 3027,
      "Exploit": 3028,
      "parameter": 3029,
      "MD": 3030,
      "x50": 3031,
      "rc": 3032,
      "87": 3033,
      "enter": 3034,
      "oogle": 3035,
      "x65": 3036,
      "ors": 3037,
      "rol": 3038,
      "))": 3039,
      "Improper": 3040,
      "linux": 3041,
      "roid": 3042,
      "denial": 3043,
      "app": 3044,
      "other": 3045,
      "wall": 3046,
      "message": 3047,
      "top": 3048,
      "x27": 3049,
      "ally": 3050,
      "LL": 3051,
      "overflow": 3052,
      "when": 3053,
      "ML": 3054,
      "glsa": 3055,
      "act": 3056,
      "OSVDB": 3057,
      "scripting": 3058,
      "ffer": 3059,
      "vulnerable": 3060,
      "poss": 3061,
      "ER": 3062,
      "ient": 3063,
      "90": 3064,
      "53": 3065,
      "lead": 3066,
      "cor": 3067,
      "+=": 3068,
      "valid": 3069,
      "used": 3070,
      "x04": 3071,
      "fe": 3072,
      "Oracle": 3073,
      "fa": 3074,
      "password": 3075,
      "HTTP": 3076,
      "Auth": 3077,
      "Bu": 3078,
      "shell": 3079,
      "ide": 3080,
      "blog": 3081,
      "Dis": 3082,
      "ayload": 3083,
      "x5C": 3084,
      "too": 3085,
      "sc": 3086,
      "ects": 3087,
      "pload": 3088,
      "fl": 3089,
      "TA": 3090,
      "row": 3091,
      "patch": 3092,
      "ORA": 3093,
      "SP": 3094,
      "stat": 3095,
      "pt": 3096,
      "agement": 3097,
      "ious": 3098,
      "fd": 3099,
      "x74": 3100,
      "action": 3101,
      "_id": 3102,
      "mar": 3103,
      "Lin": 3104,
      "ord": 3105,
      "x90": 3106,
      "FED": 3107,
      "cc": 3108,
      "ire": 3109,
      "x02": 3110,
      "FEDORA": 3111,
      "pub": 3112,
      "x42": 3113,
      "value": 3114,
      "Cisco": 3115,
      "x03": 3116,
      "stor": 3117,
      "sql": 3118,
      "cross": 3119,
      "103": 3120,
      "User": 3121,
      "Multiple": 3122,
      "x61": 3123,
      "show_": 3124,
      "ha": 3125,
      "attacks": 3126,
      "check": 3127,
      "go": 3128,
      "posit": 3129,
      "target": 3130,
      "send": 3131,
      "been": 3132,
      "ages": 3133,
      "mod": 3134,
      "tech": 3135,
      "dsa": 3136,
      "IP": 3137,
      "multiple": 3138,
      "ypass": 3139,
      "54": 3140,
      "we": 3141,
      "msg0000": 3142,
      "System": 3143,
      "],": 3144,
      "execution": 3145,
      "x31": 3146,
      "CS": 3147,
      "TE": 3148,
      "Code": 3149,
      "ou": 3150,
      "usn": 3151,
      "show_bug": 3152,
      "openwall": 3153,
      "ick": 3154,
      "DSA": 3155,
      "untu": 3156,
      "traq": 3157,
      "Advisor": 3158,
      "84": 3159,
      "oracle": 3160,
      "AN": 3161,
      "bugtraq": 3162,
      "result": 3163,
      "lab": 3164,
      "lier": 3165,
      "Po": 3166,
      "author": 3167,
      "x44": 3168,
      "ax": 3169,
      "Lo": 3170,
      "lts": 3171,
      "earlier": 3172,
      "stack": 3173,
      "================================": 3174,
      "dev": 3175,
      "ized": 3176,
      "RE": 3177,
      "bugzilla": 3178,
      "blob": 3179,
      "ence": 3180,
      "CH": 3181,
      "abase": 3182,
      "ics": 3183,
      "Ac": 3184,
      "GL": 3185,
      "83": 3186,
      "Tr": 3187,
      "fix": 3188,
      "x46": 3189,
      "gentoo": 3190,
      "dr": 3191,
      "Ver": 3192,
      "size": 3193,
      "...": 3194,
      "prior": 3195,
      "init": 3196,
      "threaded": 3197,
      "ubuntu": 3198,
      "wer": 3199,
      "docs": 3200,
      "addr": 3201,
      "60": 3202,
      "0000000000000000": 3203,
      "PHP": 3204,
      "Requ": 3205,
      "ger": 3206,
      "ager": 3207,
      "len": 3208,
      "memory": 3209,
      "conn": 3210,
      "ik": 3211,
      "ential": 3212,
      "../": 3213,
      "Pl": 3214,
      "AC": 3215,
      "icious": 3216,
      "ccessful": 3217,
      "52": 3218,
      "DI": 3219,
      "70": 3220,
      "lic": 3221,
      "head": 3222,
      "93": 3223,
      "73": 3224,
      "~~~~": 3225,
      "based": 3226,
      "cre": 3227,
      "0xFF": 3228,
      "63": 3229,
      "aaaaaaaa": 3230,
      "74": 3231,
      "irectory": 3232,
      "payload": 3233,
      "cts": 3234,
      "x10": 3235,
      "Op": 3236,
      "write": 3237,
      "confi": 3238,
      ">*>*>*>*>*>*>*>*": 3239,
      "94": 3240,
      "SD": 3241,
      "bb": 3242,
      "pdf": 3243,
      "malicious": 3244,
      "82": 3245,
      "ee": 3246,
      "Service": 3247,
      "Ar": 3248,
      "x89": 3249,
      "Net": 3250,
      "comm": 3251,
      "nt": 3252,
      "NU": 3253,
      "sel": 3254,
      "cisco": 3255,
      "hand": 3256,
      "URL": 3257,
      "vers": 3258,
      "brow": 3259,
      "x49": 3260,
      "class": 3261,
      "x72": 3262,
      "specified": 3263,
      "ix": 3264,
      "x68": 3265,
      "xss": 3266,
      "google": 3267,
      "x24": 3268,
      "process": 3269,
      "Request": 3270,
      "text": 3271,
      "key": 3272,
      "any": 3273,
      "x64": 3274,
      "x43": 3275,
      "database": 3276,
      "GLSA": 3277,
      "does": 3278,
      "var": 3279,
      "ava": 3280,
      "x69": 3281,
      "x66": 3282,
      "Su": 3283,
      "['": 3284,
      "SEC": 3285,
      "buf": 3286,
      "cpu": 3287,
      "play": 3288,
      "cover": 3289,
      "sing": 3290,
      "error": 3291,
      "line": 3292,
      "ases": 3293,
      "x51": 3294,
      "dos": 3295,
      "x08": 3296,
      "center": 3297,
      "aps": 3298,
      "ull": 3299,
      "tom": 3300,
      "x70": 3301,
      "0x0": 3302,
      "x73": 3303,
      "Buffer": 3304,
      "ev": 3305,
      "uct": 3306,
      "ust": 3307,
      "ensit": 3308,
      "ensitive": 3309,
      "x48": 3310,
      "3C": 3311,
      "92": 3312,
      "openSUSE": 3313,
      "ST": 3314,
      "windows": 3315,
      "x75": 3316,
      "due": 3317,
      "For": 3318,
      "products": 3319,
      "cis": 3320,
      "cd": 3321,
      "No": 3322,
      "CO": 3323,
      ",,,,,": 3324,
      "inject": 3325,
      "ast": 3326,
      "fol": 3327,
      "81": 3328,
      "x80": 3329,
      "Advisory": 3330,
      "3E": 3331,
      "Res": 3332,
      "vn": 3333,
      "bin": 3334,
      "ponent": 3335,
      "contain": 3336,
      "cal": 3337,
      "vuldb": 3338,
      "address": 3339,
      "lock": 3340,
      "upload": 3341,
      "defin": 3342,
      "HTML": 3343,
      "sw": 3344,
      "corr": 3345,
      "det": 3346,
      "privileges": 3347,
      "72": 3348,
      "RF": 3349,
      "rig": 3350,
      "time": 3351,
      "link": 3352,
      "plugins": 3353,
      "microsoft": 3354,
      "pository": 3355,
      "62": 3356,
      "xml": 3357,
      "uid": 3358,
      "jp": 3359,
      "AM": 3360,
      "component": 3361,
      "x32": 3362,
      "will": 3363,
      "possible": 3364,
      "#{": 3365,
      "alert": 3366,
      "51": 3367,
      "ude": 3368,
      "login": 3369,
      "istr": 3370,
      "repository": 3371,
      "cf": 3372,
      "\\\\": 3373,
      "device": 3374,
      "fr": 3375,
      "ession": 3376,
      "x58": 3377,
      "BB": 3378,
      "using": 3379,
      "msg000": 3380,
      "bound": 3381,
      "sf": 3382,
      "crash": 3383,
      "x8B": 3384,
      "pot": 3385,
      "Word": 3386,
      "hel": 3387,
      "c0": 3388,
      "ITY": 3389,
      "aw": 3390,
      "sign": 3391,
      "Mo": 3392,
      "pre": 3393,
      "ens": 3394,
      "0x2": 3395,
      "ault": 3396,
      "hn": 3397,
      "authorized": 3398,
      "x05": 3399,
      "marc": 3400,
      "0xF": 3401,
      "....": 3402,
      "product": 3403,
      "inst": 3404,
      "And": 3405,
      "py": 3406,
      "Do": 3407,
      "bypass": 3408,
      "ong": 3409,
      "x33": 3410,
      "Content": 3411,
      "Ho": 3412,
      "down": 3413,
      "????": 3414,
      "71": 3415,
      "Pri": 3416,
      "########": 3417,
      "GHSA": 3418,
      "discover": 3419,
      "61": 3420,
      "Log": 3421,
      "Linux": 3422,
      "have": 3423,
      "ength": 3424,
      "eration": 3425,
      "AAAAAAAAAAAAAAAAAAAAAAAAAAAAAAAA": 3426,
      "x38": 3427,
      "msg00": 3428,
      "js": 3429,
      "ance": 3430,
      "IC": 3431,
      "x53": 3432,
      "x86": 3433,
      "ails": 3434,
      "full": 3435,
      "sys": 3436,
      "cook": 3437,
      "x63": 3438,
      "ator": 3439,
      "ffic": 3440,
      "portal": 3441,
      "ep": 3442,
      "ged": 3443,
      "Open": 3444,
      "argv": 3445,
      "exec": 3446,
      "cb": 3447,
      "=-=-=-=-": 3448,
      "ative": 3449,
      "<<": 3450,
      "LA": 3451,
      "ting": 3452,
      "Management": 3453,
      "ical": 3454,
      "']": 3455,
      "NULL": 3456,
      "+]": 3457,
      "cept": 3458,
      "x0e": 3459,
      "lev": 3460,
      "updates": 3461,
      "Execu": 3462,
      "dule": 3463,
      "vo": 3464,
      "led": 3465,
      "91": 3466,
      "x54": 3467,
      "post": 3468,
      "da": 3469,
      "[+]": 3470,
      "string": 3471,
      "pe": 3472,
      "x4b": 3473,
      "definition": 3474,
      "Press": 3475,
      "por": 3476,
      "pi": 3477,
      "ant": 3478,
      ":\"": 3479,
      "kan": 3480,
      "reg": 3481,
      "run": 3482,
      "control": 3483,
      "ments": 3484,
      "uring": 3485,
      "x11": 3486,
      "ook": 3487,
      "ility": 3488,
      "Sh": 3489,
      "versal": 3490,
      "vices": 3491,
      "respon": 3492,
      "struct": 3493,
      "nown": 3494,
      "itle": 3495,
      "x56": 3496,
      "AL": 3497,
      "exit": 3498,
      "di": 3499,
      "col": 3500,
      "1111": 3501,
      "0x5": 3502,
      "aster": 3503,
      "\">": 3504,
      "includ": 3505,
      "httpd": 3506,
      "document": 3507,
      "include": 3508,
      "cat": 3509,
      "eu": 3510,
      "x55": 3511,
      "vect": 3512,
      "CT": 3513,
      "Overflow": 3514,
      "ially": 3515,
      "../../": 3516,
      "SECUR": 3517,
      "zer": 3518,
      "our": 3519,
      "alization": 3520,
      "NO": 3521,
      "ise": 3522,
      "cisecurity": 3523,
      "3Adef": 3524,
      "3Aorg": 3525,
      "cur": 3526,
      "but": 3527,
      "****************": 3528,
      "SECURITY": 3529,
      "rhn": 3530,
      "rec": 3531,
      "ify": 3532,
      "socket": 3533,
      "cod": 3534,
      "40lists": 3535,
      "earch": 3536,
      "sensitive": 3537,
      "Execution": 3538,
      "sions": 3539,
      "config": 3540,
      "ds": 3541,
      "x34": 3542,
      "AT": 3543,
      "x79": 3544,
      "root": 3545,
      "discovered": 3546,
      "Vulnerabilities": 3547,
      "core": 3548,
      "WordPress": 3549,
      "affects": 3550,
      "Information": 3551,
      "va": 3552,
      "BM": 3553,
      "x83": 3554,
      "Android": 3555,
      "EN": 3556,
      "CMS": 3557,
      "x06": 3558,
      "mon": 3559,
      "wp": 3560,
      "storm": 3561,
      "san": 3562,
      "Pat": 3563,
      "RO": 3564,
      "fb": 3565,
      "________": 3566,
      "public": 3567,
      "dd": 3568,
      "else": 3569,
      "tain": 3570,
      "x40": 3571,
      "x62": 3572,
      "back": 3573,
      "ea": 3574,
      "Input": 3575,
      "Microsoft": 3576,
      "x52": 3577,
      "authentication": 3578,
      "packetstorm": 3579,
      "Up": 3580,
      "found": 3581,
      "unauthorized": 3582,
      "000000": 3583,
      "x36": 3584,
      "SI": 3585,
      "xxxxxxxx": 3586,
      "count": 3587,
      "endof": 3588,
      "bulletins": 3589,
      "endofbuff": 3590,
      "ols": 3591,
      "0xC": 3592,
      "x12": 3593,
      "iki": 3594,
      "x07": 3595,
      "x35": 3596,
      "properly": 3597,
      "0x20": 3598,
      "packetstormsecurity": 3599,
      "APP": 3600,
      "commands": 3601,
      "browser": 3602,
      "intel": 3603,
      "Manager": 3604,
      "x47": 3605,
      "My": 3606,
      "tralization": 3607,
      "Successful": 3608,
      "x13": 3609,
      "CP": 3610,
      "echo": 3611,
      "x4f": 3612,
      "DE": 3613,
      "help": 3614,
      "ba": 3615,
      "ZDI": 3616,
      "b2": 3617,
      "la": 3618,
      "tim": 3619,
      "Neu": 3620,
      "gro": 3621,
      "report": 3622,
      "Type": 3623,
      "3B": 3624,
      "cap": 3625,
      "aler": 3626,
      "Id": 3627,
      "Page": 3628,
      "@@": 3629,
      "Conn": 3630,
      "Gen": 3631,
      "cmd": 3632,
      "imple": 3633,
      "0x1": 3634,
      "technetwork": 3635,
      "VU": 3636,
      "2004": 3637,
      "x78": 3638,
      "Neutralization": 3639,
      "++++": 3640,
      "vectors": 3641,
      "client": 3642,
      "self": 3643,
      "x21": 3644,
      "br": 3645,
      "orgery": 3646,
      "Soft": 3647,
      "x67": 3648,
      "pli": 3649,
      "mozilla": 3650,
      "4d": 3651,
      "ual": 3652,
      "OST": 3653,
      "unspecified": 3654,
      "ake": 3655,
      "Author": 3656,
      "obtain": 3657,
      "ource": 3658,
      "s_": 3659,
      "tag": 3660,
      "aka": 3661,
      "usion": 3662,
      "dition": 3663,
      "x14": 3664,
      "ests": 3665,
      "To": 3666,
      "over": 3667,
      "context": 3668,
      "fc": 3669,
      "x57": 3670,
      "x4c": 3671,
      "tif": 3672,
      "VM": 3673,
      "rm": 3674,
      "free": 3675,
      "alerts": 3676,
      "();": 3677,
      "ists": 3678,
      "VN": 3679,
      "download": 3680,
      "ade": 3681,
      "x88": 3682,
      "cookie": 3683,
      "Command": 3684,
      "call": 3685,
      "Java": 3686,
      "APPLE": 3687,
      "bounds": 3688,
      "ref": 3689,
      "off": 3690,
      "x23": 3691,
      "gov": 3692,
      "promis": 3693,
      "imp": 3694,
      "It": 3695,
      "cred": 3696,
      "unauthenticated": 3697,
      "seclists": 3698,
      "release": 3699,
      "sanit": 3700,
      "privilege": 3701,
      "compromis": 3702,
      "];": 3703,
      "Privile": 3704,
      "x76": 3705,
      "master": 3706,
      "Al": 3707,
      "cv": 3708,
      "ado": 3709,
      "vuln": 3710,
      "android": 3711,
      "trac": 3712,
      "exists": 3713,
      "some": 3714,
      "107": 3715,
      "_t": 3716,
      "rel": 3717,
      "endor": 3718,
      "RT": 3719,
      "x15": 3720,
      "x71": 3721,
      "GET": 3722,
      "prov": 3723,
      "Den": 3724,
      "plied": 3725,
      "x09": 3726,
      "101": 3727,
      "='": 3728,
      "les": 3729,
      "105": 3730,
      "ium": 3731,
      "eca": 3732,
      "x39": 3733,
      "dc": 3734,
      "x37": 3735,
      "close": 3736,
      "tric": 3737,
      "part": 3738,
      "4b": 3739,
      "Name": 3740,
      "106": 3741,
      "chr": 3742,
      "VSA": 3743,
      "asp": 3744,
      "205": 3745,
      "De": 3746,
      "CE": 3747,
      "f5": 3748,
      "directory": 3749,
      "ese": 3750,
      "ports": 3751,
      "x22": 3752,
      "follow": 3753,
      "2003": 3754,
      "software": 3755,
      "---": 3756,
      "102": 3757,
      "module": 3758,
      "):": 3759,
      "0x08": 3760,
      "rand": 3761,
      "x0A": 3762,
      "email": 3763,
      "import": 3764,
      "Sch": 3765,
      "=&": 3766,
      "Inter": 3767,
      "MDVSA": 3768,
      "0x3": 3769,
      "header": 3770,
      "Denial": 3771,
      ".\"": 3772,
      "status": 3773,
      "Loc": 3774,
      "face": 3775,
      "x18": 3776,
      "than": 3777,
      "xy": 3778,
      "CVSS": 3779,
      "wss": 3780,
      "need": 3781,
      "bugs": 3782,
      "DD": 3783,
      "213": 3784,
      "session": 3785,
      "ma": 3786,
      "length": 3787,
      "num": 3788,
      "while": 3789,
      "0x80": 3790,
      "trunk": 3791,
      "CSRF": 3792,
      "c7": 3793,
      "x59": 3794,
      "0xA": 3795,
      "ability": 3796,
      "shellcode": 3797,
      "0x01": 3798,
      "x4e": 3799,
      "8b": 3800,
      "initi": 3801,
      "compromise": 3802,
      "sizeof": 3803,
      "edit": 3804,
      "x77": 3805,
      "a0": 3806,
      "connect": 3807,
      "ang": 3808,
      "f7": 3809,
      "sun": 3810,
      "((": 3811,
      "x6E": 3812,
      "cs": 3813,
      "default": 3814,
      "vuls": 3815,
      "docview": 3816,
      "atform": 3817,
      "Script": 3818,
      "ating": 3819,
      "SO": 3820,
      "dy": 3821,
      "node": 3822,
      "entials": 3823,
      "ecause": 3824,
      "ight": 3825,
      "x85": 3826,
      "pages": 3827,
      "LO": 3828,
      "med": 3829,
      "x7F": 3830,
      "x25": 3831,
      "0x61": 3832,
      "x8D": 3833,
      "image": 3834,
      "ipul": 3835,
      "fiel": 3836,
      "supplied": 3837,
      "p_": 3838,
      "administr": 3839,
      "[]": 3840,
      "x29": 3841,
      "Access": 3842,
      "255": 3843,
      "ason": 3844,
      "sol": 3845,
      "x28": 3846,
      "mat": 3847,
      "x6F": 3848,
      "POST": 3849,
      "artic": 3850,
      "msrc": 3851,
      "also": 3852,
      "4c": 3853,
      "Disclosure": 3854,
      "wiki": 3855,
      "after": 3856,
      "001": 3857,
      "Bo": 3858,
      "All": 3859,
      "releases": 3860,
      "x84": 3861,
      "ans": 3862,
      "ild": 3863,
      "JVN": 3864,
      "tools": 3865,
      "Control": 3866,
      "Date": 3867,
      "ning": 3868,
      "xE8": 3869,
      "x60": 3870,
      "requests": 3871,
      "x81": 3872,
      "suffic": 3873,
      "108": 3874,
      "pers": 3875,
      "sufficient": 3876,
      "3b": 3877,
      "because": 3878,
      "fulldisclosure": 3879,
      "response": 3880,
      "dele": 3881,
      "into": 3882,
      "x6C": 3883,
      "thod": 3884,
      "lack": 3885,
      "irt": 3886,
      "x99": 3887,
      "':": 3888,
      "Ag": 3889,
      "ae": 3890,
      "FI": 3891,
      "username": 3892,
      "ange": 3893,
      "Data": 3894,
      "trig": 3895,
      "long": 3896,
      "DLA": 3897,
      "f8": 3898,
      "v1": 3899,
      "f9": 3900,
      "4141": 3901,
      "date": 3902,
      "news": 3903,
      "CHAR": 3904,
      "Port": 3905,
      "piper": 3906,
      "reason": 3907,
      "NT": 3908,
      "Inte": 3909,
      "pipermail": 3910,
      "arr": 3911,
      "Generation": 3912,
      "SC": 3913,
      "Stor": 3914,
      "patchstack": 3915,
      "uption": 3916,
      "under": 3917,
      "/>": 3918,
      "na": 3919,
      "4e": 3920,
      "5d": 3921,
      "igh": 3922,
      "hid": 3923,
      "x16": 3924,
      "Free": 3925,
      ">*>*>*>*>*>*>*>*>*>*>*>*>*>*>*>*": 3926,
      "Fire": 3927,
      "ins": 3928,
      "f6": 3929,
      "kann": 3930,
      "Read": 3931,
      "''": 3932,
      "2000": 3933,
      "<=": 3934,
      "139": 3935,
      "prise": 3936,
      "Privilege": 3937,
      "On": 3938,
      "3d": 3939,
      "IBM": 3940,
      "enable": 3941,
      "fox": 3942,
      "signed": 3943,
      "aaaaaaaaaaaaaaaa": 3944,
      "AG": 3945,
      "MP": 3946,
      "void": 3947,
      "ily": 3948,
      "credentials": 3949,
      "_s_id": 3950,
      "2002": 3951,
      "validation": 3952,
      "Path": 3953,
      "ific": 3954,
      "f0": 3955,
      "Sp": 3956,
      "unknown": 3957,
      "ci": 3958,
      "following": 3959,
      "\\\"": 3960,
      "privileged": 3961,
      "ror": 3962,
      "x0a": 3963,
      "OP": 3964,
      "));": 3965,
      "unch": 3966,
      "1b": 3967,
      "ident": 3968,
      "its": 3969,
      "temp": 3970,
      "During": 3971,
      "uri": 3972,
      "AX": 3973,
      "2c": 3974,
      "2b": 3975,
      "208": 3976,
      "uration": 3977,
      "Enter": 3978,
      "rent": 3979,
      "ved": 3980,
      "base": 3981,
      "_re": 3982,
      "query": 3983,
      "install": 3984,
      "escal": 3985,
      "ice": 3986,
      "perform": 3987,
      "group": 3988,
      "adobe": 3989,
      "create": 3990,
      "dll": 3991,
      "securityreason": 3992,
      "Admin": 3993,
      "test": 3994,
      "permis": 3995,
      "hp": 3996,
      "start": 3997,
      "x19": 3998,
      "ffffffff": 3999,
      "x95": 4000,
      "x82": 4001,
      "pull": 4002,
      "x4a": 4003,
      "gain": 4004,
      "hidden": 4005,
      "~~~~~~~~": 4006,
      "./": 4007,
      "securityalert": 4008,
      "inurl": 4009,
      "ush": 4010,
      "x0d": 4011,
      "\"\"": 4012,
      "UI": 4013,
      "interaction": 4014,
      "x17": 4015,
      "c9": 4016,
      "109": 4017,
      "swg": 4018,
      "xFC": 4019,
      "104": 4020,
      "Software": 4021,
      "case": 4022,
      "Authent": 4023,
      "execut": 4024,
      "].": 4025,
      "vir": 4026,
      "oday": 4027,
      "reat": 4028,
      "print_": 4029,
      "216": 4030,
      "itical": 4031,
      "0x4": 4032,
      "2F": 4033,
      "method": 4034,
      "x0f": 4035,
      "Version": 4036,
      "including": 4037,
      "wo": 4038,
      "Met": 4039,
      "erence": 4040,
      "handl": 4041,
      "ftp": 4042,
      "300": 4043,
      "restric": 4044,
      "zeroday": 4045,
      "},": 4046,
      "cpuj": 4047,
      "ste": 4048,
      "jvn": 4049,
      "tive": 4050,
      "dri": 4051,
      "cus": 4052,
      "212": 4053,
      "gitlab": 4054,
      "correct": 4055,
      "duct": 4056,
      "ream": 4057,
      "EX": 4058,
      "x98": 4059,
      "vulnerabilities_": 4060,
      "c8": 4061,
      "x26": 4062,
      "cvs": 4063,
      "Str": 4064,
      "article": 4065,
      "SR": 4066,
      "c6": 4067,
      "argument": 4068,
      "XX": 4069,
      "Add": 4070,
      "mac": 4071,
      "Er": 4072,
      "bre": 4073,
      "interface": 4074,
      "PC": 4075,
      "By": 4076,
      "At": 4077,
      "x0C": 4078,
      "ark": 4079,
      "He": 4080,
      "initiative": 4081,
      "a9": 4082,
      "zerodayinitiative": 4083,
      "xFE": 4084,
      "Cl": 4085,
      "eine": 4086,
      "mode": 4087,
      "------------------------": 4088,
      "ires": 4089,
      "tor": 4090,
      "comp": 4091,
      "0xB": 4092,
      "0xE": 4093,
      "209": 4094,
      "sed": 4095,
      "bd": 4096,
      "nal": 4097,
      "a8": 4098,
      "project": 4099,
      "there": 4100,
      "x6A": 4101,
      "x6f": 4102,
      "fs": 4103,
      "1d": 4104,
      "elle": 4105,
      "apsb": 4106,
      "e7": 4107,
      "traversal": 4108,
      "x4d": 4109,
      "unsigned": 4110,
      "sn": 4111,
      "AB": 4112,
      "ont": 4113,
      "these": 4114,
      "a7": 4115,
      "mer": 4116,
      "riva": 4117,
      "x0c": 4118,
      "ION": 4119,
      "mandriva": 4120,
      "e6": 4121,
      "secure": 4122,
      "launch": 4123,
      "within": 4124,
      "related": 4125,
      "Local": 4126,
      "gram": 4127,
      "topics": 4128,
      "::::": 4129,
      "prone": 4130,
      "Directory": 4131,
      "om": 4132,
      "/#": 4133,
      "entially": 4134,
      "ename": 4135,
      "display": 4136,
      "e8": 4137,
      "alse": 4138,
      "x6e": 4139,
      "wach": 4140,
      "management": 4141,
      "xC0": 4142,
      "ken": 4143,
      "wachst": 4144,
      "fixed": 4145,
      "ME": 4146,
      "ele": 4147,
      "lever": 4148,
      ",,,,,,": 4149,
      "object": 4150,
      "x87": 4151,
      "x91": 4152,
      "sm": 4153,
      "you": 4154,
      "Enterprise": 4155,
      "potentially": 4156,
      "wachstelle": 4157,
      "Forgery": 4158,
      "Schwachstelle": 4159,
      "BU": 4160,
      "chrom": 4161,
      "ua": 4162,
      "x6D": 4163,
      "_p": 4164,
      "exploitable": 4165,
      "ations": 4166,
      "Pass": 4167,
      "trigger": 4168,
      "x93": 4169,
      "tem": 4170,
      "Fil": 4171,
      "possib": 4172,
      "submit": 4173,
      "only": 4174,
      "notes": 4175,
      "box": 4176,
      "die": 4177,
      "exploitation": 4178,
      "au": 4179,
      "v2": 4180,
      "map": 4181,
      "a6": 4182,
      "AV": 4183,
      "exe": 4184,
      "oh": 4185,
      "Sup": 4186,
      "x2F": 4187,
      "ry": 4188,
      "xF0": 4189,
      "ank": 4190,
      "x6c": 4191,
      "Host": 4192,
      "xDE": 4193,
      "e0": 4194,
      "----------------------------------------------------------------": 4195,
      "ister": 4196,
      "ced": 4197,
      "5b": 4198,
      "sd": 4199,
      "206": 4200,
      "coded": 4201,
      "Google": 4202,
      "x0D": 4203,
      "x3B": 4204,
      "apsis": 4205,
      "eg": 4206,
      "Set": 4207,
      "AF": 4208,
      "x92": 4209,
      "body": 4210,
      "where": 4211,
      "x3F": 4212,
      "x94": 4213,
      "true": 4214,
      "AI": 4215,
      "get_": 4216,
      "point": 4217,
      "break": 4218,
      "delete": 4219,
      "ork": 4220,
      "accessible": 4221,
      "tes": 4222,
      "rf": 4223,
      "comple": 4224,
      "tput": 4225,
      "cms": 4226,
      "x96": 4227,
      "mf": 4228,
      "ask": 4229,
      "e9": 4230,
      "xc0": 4231,
      "2d": 4232,
      "oct": 4233,
      "SM": 4234,
      "ates": 4235,
      "MySQL": 4236,
      "cryp": 4237,
      "DoS": 4238,
      "such": 4239,
      "116": 4240,
      "Eas": 4241,
      "asploit": 4242,
      "c3": 4243,
      "500": 4244,
      "si": 4245,
      "207": 4246,
      "nam": 4247,
      "UT": 4248,
      "*)": 4249,
      "x97": 4250,
      "Lab": 4251,
      "configuration": 4252,
      "without": 4253,
      "Ind": 4254,
      "proxy": 4255,
      "svn": 4256,
      "setting": 4257,
      "x4D": 4258,
      "velo": 4259,
      "jects": 4260,
      "src": 4261,
      "Tech": 4262,
      "sin": 4263,
      "(!": 4264,
      "Sn": 4265,
      "x0E": 4266,
      "00000000000000000000000000000000": 4267,
      "Par": 4268,
      "xC9": 4269,
      "ality": 4270,
      "detail": 4271,
      "roll": 4272,
      "tmp": 4273,
      "x0F": 4274,
      "xe7": 4275,
      "tocol": 4276,
      "levation": 4277,
      "ty": 4278,
      "ample": 4279,
      "CK": 4280,
      "ktop": 4281,
      "escalation": 4282,
      "___": 4283,
      "x3C": 4284,
      "!!": 4285,
      "GV": 4286,
      "ipulation": 4287,
      "CiscoSecurity": 4288,
      "iled": 4289,
      "netapp": 4290,
      "d0": 4291,
      "current": 4292,
      ")\",": 4293,
      "old": 4294,
      "neoh": 4295,
      "neohapsis": 4296,
      "Der": 4297,
      "\":": 4298,
      "xFD": 4299,
      "``": 4300,
      "Mem": 4301,
      "AAAAAAAAAAAAAAAAAAAAAAAAAAAAAAAAAAAAAAAAAAAAAAAAAAAAAAAAAAAAAAAA": 4302,
      "211": 4303,
      "><": 4304,
      "gh": 4305,
      "x5F": 4306,
      "met": 4307,
      "gener": 4308,
      "0x8": 4309,
      "x5E": 4310,
      "exp": 4311,
      "critical": 4312,
      "Use": 4313,
      "ntap": 4314,
      "cy": 4315,
      "ü": 4316,
      "ird": 4317,
      "_addr": 4318,
      "dir": 4319,
      "corruption": 4320,
      "_P": 4321,
      "a5": 4322,
      "xF8": 4323,
      "c5": 4324,
      "avail": 4325,
      "changes": 4326,
      "NOTE": 4327,
      "impact": 4328,
      "Stored": 4329,
      "possibly": 4330,
      "006": 4331,
      "intitle": 4332,
      "xEB": 4333,
      "alloc": 4334,
      "provid": 4335,
      "x3c": 4336,
      "x5D": 4337,
      "research": 4338,
      "168": 4339,
      "field": 4340,
      "helpx": 4341,
      "firm": 4342,
      "????????": 4343,
      ">>": 4344,
      "escap": 4345,
      "x2E": 4346,
      "mak": 4347,
      "xb0": 4348,
      "-----": 4349,
      "successful": 4350,
      "Metasploit": 4351,
      "Val": 4352,
      "d6": 4353,
      "Apache": 4354,
      "threat": 4355,
      "Link": 4356,
      "static": 4357,
      "xfe": 4358,
      "channel": 4359,
      "Authentication": 4360,
      "security_": 4361,
      "TO": 4362,
      "llig": 4363,
      "account": 4364,
      "117": 4365,
      "CR": 4366,
      "Get": 4367,
      "xCC": 4368,
      "Out": 4369,
      "Fo": 4370,
      "Qu": 4371,
      "dot": 4372,
      "json": 4373,
      "API": 4374,
      "SER": 4375,
      "110": 4376,
      "################": 4377,
      "cep": 4378,
      "Image": 4379,
      "ime": 4380,
      "Cre": 4381,
      "!=": 4382,
      "needed": 4383,
      "308": 4384,
      "Stack": 4385,
      "x7A": 4386,
      "grade": 4387,
      "td": 4388,
      "m_": 4389,
      "305": 4390,
      "condition": 4391,
      "cle": 4392,
      "fail": 4393,
      "=-=-=-=-=-=-=-=-": 4394,
      "ature": 4395,
      "mov": 4396,
      "Sub": 4397,
      "Dat": 4398,
      "DF": 4399,
      "Ob": 4400,
      "115": 4401,
      "Update": 4402,
      "xFA": 4403,
      "$$": 4404,
      "block": 4405,
      "Accept": 4406,
      "xFB": 4407,
      "x0b": 4408,
      "flaw": 4409,
      "fence": 4410,
      "0x65": 4411,
      "strlen": 4412,
      "x4C": 4413,
      "Network": 4414,
      "ta": 4415,
      "byte": 4416,
      "Cr": 4417,
      "leak": 4418,
      "cripts": 4419,
      "blogs": 4420,
      "certain": 4421,
      "require": 4422,
      "0x04": 4423,
      "cti": 4424,
      "less": 4425,
      "heap": 4426,
      "192": 4427,
      "wd": 4428,
      "high": 4429,
      "try": 4430,
      "Ele": 4431,
      "_name": 4432,
      "x9e": 4433,
      "Not": 4434,
      "filter": 4435,
      "ules": 4436,
      "trus": 4437,
      "then": 4438,
      "ls": 4439,
      "xCE": 4440,
      "Error": 4441,
      "guid": 4442,
      "UN": 4443,
      "x4E": 4444,
      "xxxxxxxxxxxxxxxx": 4445,
      "Incl": 4446,
      "x8b": 4447,
      "WP": 4448,
      "128": 4449,
      "xC3": 4450,
      "ctiid": 4451,
      "fferent": 4452,
      "4f": 4453,
      "enk": 4454,
      "HPS": 4455,
      "d8": 4456,
      "vent": 4457,
      "r_": 4458,
      "wordfence": 4459,
      "Wh": 4460,
      "2f": 4461,
      "ets": 4462,
      "150": 4463,
      "0x90": 4464,
      "b0": 4465,
      "forum": 4466,
      "125": 4467,
      "';": 4468,
      "Doc": 4469,
      "bet": 4470,
      "cer": 4471,
      "resol": 4472,
      "xC7": 4473,
      "different": 4474,
      "Au": 4475,
      "x0B": 4476,
      "Firefox": 4477,
      "a3": 4478,
      "Wr": 4479,
      "AS": 4480,
      "Upload": 4481,
      "modify": 4482,
      "firmware": 4483,
      "309": 4484,
      "ck": 4485,
      "x1E": 4486,
      "devices": 4487,
      "204": 4488,
      "b6": 4489,
      "ony": 4490,
      "ey": 4491,
      "0x03": 4492,
      "Vi": 4493,
      "x3A": 4494,
      "specific": 4495,
      "T_": 4496,
      "guidance": 4497,
      "240": 4498,
      "Fr": 4499,
      "problem": 4500,
      "output": 4501,
      "x3E": 4502,
      "CiscoSecurityAdvisory": 4503,
      "aph": 4504,
      "GP": 4505,
      "x3D": 4506,
      "addition": 4507,
      "x2C": 4508,
      "119": 4509,
      "xC4": 4510,
      "\".$": 4511,
      "ns": 4512,
      "enkins": 4513,
      "ng": 4514,
      "ense": 4515,
      "als": 4516,
      "d9": 4517,
      "Info": 4518,
      "e5": 4519,
      ":\\": 4520,
      "11111111": 4521,
      "0x9": 4522,
      "xF7": 4523,
      "Agent": 4524,
      "ired": 4525,
      "Base": 4526,
      "Hand": 4527,
      "Jun": 4528,
      "203": 4529,
      "nc": 4530,
      "ld": 4531,
      "tal": 4532,
      "direct": 4533,
      "415": 4534,
      "eax": 4535,
      "lligence": 4536,
      "0x58": 4537,
      "1038": 4538,
      "===": 4539,
      "Ado": 4540,
      "amework": 4541,
      "Sol": 4542,
      "Adobe": 4543,
      "007": 4544,
      "+=\"": 4545,
      "bf": 4546,
      "Support": 4547,
      "d7": 4548,
      "complete": 4549,
      "implement": 4550,
      "x6B": 4551,
      "leads": 4552,
      "register": 4553,
      "Bypass": 4554,
      "way": 4555,
      "pop": 4556,
      "angu": 4557,
      "xEC": 4558,
      "aging": 4559,
      "Application": 4560,
      "xE0": 4561,
      "KSA": 4562,
      "If": 4563,
      "now": 4564,
      "agon": 4565,
      "pointer": 4566,
      "Pj": 4567,
      "Aff": 4568,
      "1c": 4569,
      "xE9": 4570,
      "event": 4571,
      "219": 4572,
      "Connection": 4573,
      "b8": 4574,
      "127": 4575,
      "lat": 4576,
      "ira": 4577,
      "sites": 4578,
      "xD0": 4579,
      "hi": 4580,
      "b9": 4581,
      "PoC": 4582,
      "mb": 4583,
      "]);": 4584,
      "Comp": 4585,
      "b7": 4586,
      "ended": 4587,
      "123": 4588,
      "x6b": 4589,
      "sanitize": 4590,
      "Vendor": 4591,
      "bat": 4592,
      "Te": 4593,
      "1036": 4594,
      "Password": 4595,
      "MDKSA": 4596,
      "x2f": 4597,
      "xF4": 4598,
      "118": 4599,
      "xD3": 4600,
      "conf": 4601,
      "bl": 4602,
      "String": 4603,
      "unbe": 4604,
      "oot": 4605,
      "ORD": 4606,
      "prot": 4607,
      "400": 4608,
      "lient": 4609,
      "ators": 4610,
      "Check": 4611,
      "Elevation": 4612,
      "wur": 4613,
      "Source": 4614,
      "x1C": 4615,
      "win": 4616,
      "Def": 4617,
      "wurde": 4618,
      "x4A": 4619,
      "xF6": 4620,
      "Snap": 4621,
      "hard": 4622,
      "0x02": 4623,
      "2001": 4624,
      "PR": 4625,
      "filename": 4626,
      "mfsa": 4627,
      "TR": 4628,
      "trusted": 4629,
      "ES": 4630,
      "aus": 4631,
      "victim": 4632,
      "ply": 4633,
      "order": 4634,
      "306": 4635,
      "icate": 4636,
      "256": 4637,
      "bytes": 4638,
      "ution": 4639,
      "fails": 4640,
      "ensor": 4641,
      "307": 4642,
      "Login": 4643,
      "x6a": 4644,
      "[-": 4645,
      "x4F": 4646,
      "xC2": 4647,
      "x2A": 4648,
      "ayer": 4649,
      "0xD": 4650,
      "x2B": 4651,
      "zip": 4652,
      "xC6": 4653,
      "XML": 4654,
      "2C": 4655,
      "xD1": 4656,
      "xF3": 4657,
      "406": 4658,
      "b5": 4659,
      "uses": 4660,
      "x2D": 4661,
      "x1B": 4662,
      "........": 4663,
      "xf1": 4664,
      "develo": 4665,
      "Git": 4666,
      "x7C": 4667,
      "must": 4668,
      "anguage": 4669,
      "1024": 4670,
      "CC": 4671,
      "&#": 4672,
      "Ed": 4673,
      "stored": 4674,
      "xC1": 4675,
      "){": 4676,
      "your": 4677,
      "token": 4678,
      "ptr": 4679,
      "Client": 4680,
      "dragon": 4681,
      "vm": 4682,
      "SSL": 4683,
      "tree": 4684,
      "nl": 4685,
      "DO": 4686,
      "xF1": 4687,
      "null": 4688,
      "1f": 4689,
      "xCA": 4690,
      "323": 4691,
      "makes": 4692,
      "xcd": 4693,
      "\\/": 4694,
      "inc": 4695,
      "ute": 4696,
      "additional": 4697,
      "xB8": 4698,
      "ons": 4699,
      "java": 4700,
      "008": 4701,
      "FTP": 4702,
      "writ": 4703,
      "2025": 4704,
      "0x74": 4705,
      "xF9": 4706,
      "*]": 4707,
      "specially": 4708,
      "x7D": 4709,
      "platform": 4710,
      "leverage": 4711,
      "217": 4712,
      "288": 4713,
      "build": 4714,
      "SY": 4715,
      ".=": 4716,
      "xe9": 4717,
      "CA": 4718,
      "scripts": 4719,
      "408": 4720,
      "++++++++": 4721,
      "manager": 4722,
      "cpy": 4723,
      "book": 4724,
      "(\"\\": 4725,
      "218": 4726,
      "rop": 4727,
      "xCF": 4728,
      "Eng": 4729,
      "Snapdragon": 4730,
      "_IN": 4731,
      "well": 4732,
      "2e": 4733,
      "xC5": 4734,
      "416": 4735,
      "leases": 4736,
      "level": 4737,
      "LI": 4738,
      "215": 4739,
      "214": 4740,
      "0x10": 4741,
      "xeb": 4742,
      "bc": 4743,
      "xD8": 4744,
      "tw": 4745,
      "EC": 4746,
      "vision": 4747,
      "pscan": 4748,
      "Target": 4749,
      "DR": 4750,
      "4a": 4751,
      "vendor": 4752,
      "Change": 4753,
      "b3": 4754,
      "_f": 4755,
      "[*]": 4756,
      "xF5": 4757,
      "ra": 4758,
      "'\\": 4759,
      "Product": 4760,
      "x5B": 4761,
      "args": 4762,
      "Affected": 4763,
      "EM": 4764,
      "upal": 4765,
      "ghdb": 4766,
      "********************************": 4767,
      "usp": 4768,
      "Pe": 4769,
      "x1F": 4770,
      "table": 4771,
      "Internet": 4772,
      "contains": 4773,
      "\"/": 4774,
      "XR": 4775,
      "initial": 4776,
      "@@@@": 4777,
      "about": 4778,
      "priv": 4779,
      "sl": 4780,
      "Memory": 4781,
      "rst": 4782,
      "securitybulletins": 4783,
      "intelligence": 4784,
      "functionality": 4785,
      "________________": 4786,
      "x1A": 4787,
      "1039": 4788,
      "dec": 4789,
      "Bug": 4790,
      "xAC": 4791,
      "Att": 4792,
      "werden": 4793,
      "pc": 4794,
      "x5A": 4795,
      "options": 4796,
      "ous": 4797,
      "x1D": 4798,
      "f3": 4799,
      "x4B": 4800,
      "ecting": 4801,
      "405": 4802,
      "xC8": 4803,
      "leading": 4804,
      "xDB": 4805,
      "TI": 4806,
      "xAD": 4807,
      "que": 4808,
      "xD9": 4809,
      "xAA": 4810,
      "uk": 4811,
      "114": 4812,
      "xE7": 4813,
      "sk": 4814,
      "IG": 4815,
      "offset": 4816,
      "x7E": 4817,
      "format": 4818,
      "SN": 4819,
      "ification": 4820,
      "xBB": 4821,
      "BSD": 4822,
      "en_": 4823,
      "e3": 4824,
      "xAB": 4825,
      "xE1": 4826,
      "array": 4827,
      "ults": 4828,
      "Easily": 4829,
      "d5": 4830,
      "apr": 4831,
      "false": 4832,
      "x6d": 4833,
      "xB9": 4834,
      "x8C": 4835,
      "II": 4836,
      "1037": 4837,
      "xD7": 4838,
      "ector": 4839,
      "parameters": 4840,
      "xDC": 4841,
      "xe1": 4842,
      "409": 4843,
      "xE3": 4844,
      "xBD": 4845,
      "New": 4846,
      "FILE": 4847,
      "xEF": 4848,
      "changeset": 4849,
      "ys": 4850,
      "handle": 4851,
      "ung": 4852,
      "stream": 4853,
      "xD6": 4854,
      "OO": 4855,
      "commun": 4856,
      "entry": 4857,
      "x8A": 4858,
      "rome": 4859,
      "d3": 4860,
      "xE4": 4861,
      "ooml": 4862,
      "jira": 4863,
      "250": 4864,
      "riff": 4865,
      "MO": 4866,
      "xED": 4867,
      "itch": 4868,
      "sour": 4869,
      "Authorization": 4870,
      "xCD": 4871,
      "xBC": 4872,
      "permissions": 4873,
      "csrf": 4874,
      "uts": 4875,
      "xf8": 4876,
      "itor": 4877,
      "Tra": 4878,
      "0x30": 4879,
      "137": 4880,
      "adv": 4881,
      "xCB": 4882,
      "~*": 4883,
      "option": 4884,
      "short": 4885,
      "View": 4886,
      "edia": 4887,
      "x9C": 4888,
      "1017": 4889,
      "kr": 4890,
      "x7B": 4891,
      "robat": 4892,
      "x9D": 4893,
      "atch": 4894,
      "&&": 4895,
      "custom": 4896,
      "Virt": 4897,
      "Det": 4898,
      "xe8": 4899,
      "poof": 4900,
      "insufficient": 4901,
      "non": 4902,
      "xB5": 4903,
      "1a": 4904,
      "xB0": 4905,
      "nolog": 4906,
      "std": 4907,
      "orge": 4908,
      "wpscan": 4909,
      "lease": 4910,
      "thon": 4911,
      "\"+": 4912,
      "manipulation": 4913,
      "xB1": 4914,
      "would": 4915,
      "v3": 4916,
      "xBF": 4917,
      "xA0": 4918,
      "ider": 4919,
      "exten": 4920,
      "EE": 4921,
      "Plugin": 4922,
      "xD5": 4923,
      "aro": 4924,
      "jsp": 4925,
      "headers": 4926,
      "cef": 4927,
      "xDD": 4928,
      "xA5": 4929,
      "remotely": 4930,
      "position": 4931,
      "browse": 4932,
      "Power": 4933,
      "vari": 4934,
      "Fix": 4935,
      "fre": 4936,
      "details": 4937,
      "reported": 4938,
      "zt": 4939,
      "xA8": 4940,
      "ribu": 4941,
      "xDF": 4942,
      "protocol": 4943,
      "407": 4944,
      "xA1": 4945,
      "BBBB": 4946,
      "print_status": 4947,
      "xB6": 4948,
      "xEE": 4949,
      "xA4": 4950,
      "427": 4951,
      "xBE": 4952,
      "closed": 4953,
      "allery": 4954,
      "wei": 4955,
      "iness": 4956,
      "board": 4957,
      "Files": 4958,
      "Traversal": 4959,
      "vc": 4960,
      "xAF": 4961,
      "number": 4962,
      "xEA": 4963,
      "grity": 4964,
      "================================================================": 4965,
      "idential": 4966,
      "hark": 4967,
      "418": 4968,
      "war": 4969,
      "sch": 4970,
      "1000": 4971,
      "xAE": 4972,
      "UE": 4973,
      "x9F": 4974,
      "xf0": 4975,
      "anel": 4976,
      "005": 4977,
      "SV": 4978,
      "usiness": 4979,
      "tomcat": 4980,
      "running": 4981,
      "oper": 4982,
      "Clo": 4983,
      "ner": 4984,
      "x8F": 4985,
      "'.": 4986,
      "known": 4987,
      "'/": 4988,
      "Msf": 4989,
      "certif": 4990,
      "required": 4991,
      "xA7": 4992,
      "~]": 4993,
      "oomla": 4994,
      "425": 4995,
      "Process": 4996,
      "xB7": 4997,
      "xE2": 4998,
      "xA9": 4999,
      "x9E": 5000,
      "NS": 5001,
      "xE5": 5002,
      "WORD": 5003,
      "uawei": 5004,
      "sap": 5005,
      "x5a": 5006,
      "Versions": 5007,
      "Mis": 5008,
      "Description": 5009,
      "program": 5010,
      "xB3": 5011,
      "mag": 5012,
      "pres": 5013,
      "ru": 5014,
      "wD": 5015,
      "Platform": 5016,
      "111": 5017,
      "xf3": 5018,
      "345": 5019,
      "3D": 5020,
      "AND": 5021,
      "xA3": 5022,
      "SSRT": 5023,
      "xB4": 5024,
      "x9A": 5025,
      "hash": 5026,
      "ideo": 5027,
      "Apple": 5028,
      "xD2": 5029,
      "PO": 5030,
      "[~]": 5031,
      "push": 5032,
      "roller": 5033,
      "xA6": 5034,
      "xBA": 5035,
      "xE6": 5036,
      "[-]": 5037,
      "encoded": 5038,
      "xD4": 5039,
      "ereleases": 5040,
      "chromium": 5041,
      "Center": 5042,
      "exploited": 5043,
      "Core": 5044,
      "uni": 5045,
      "vell": 5046,
      "inser": 5047,
      "129": 5048,
      "limit": 5049,
      "xF2": 5050,
      "Inclusion": 5051,
      "=~": 5052,
      "})": 5053,
      "ireshark": 5054,
      "Mail": 5055,
      "tcp": 5056,
      "xc4": 5057,
      "269": 5058,
      "287": 5059,
      "_file": 5060,
      "fprintf": 5061,
      "x9B": 5062,
      "1e": 5063,
      "Key": 5064,
      "x8E": 5065,
      "commits": 5066,
      "0x88": 5067,
      "cache": 5068,
      "Fl": 5069,
      "Shell": 5070,
      "handling": 5071,
      "There": 5072,
      "ish": 5073,
      "sam": 5074,
      "XP": 5075,
      "ely": 5076,
      "2a": 5077,
      "das": 5078,
      "goo": 5079,
      "++)": 5080,
      "codes": 5081,
      "argc": 5082,
      "jack": 5083,
      "glob": 5084,
      "225": 5085,
      "120": 5086,
      "xe2": 5087,
      "423": 5088,
      "ft": 5089,
      "settings": 5090,
      "210": 5091,
      "Spec": 5092,
      "dle": 5093,
      "xe6": 5094,
      "blogspot": 5095,
      "gn": 5096,
      "LOS": 5097,
      "xfc": 5098,
      "mob": 5099,
      "dm": 5100,
      "orer": 5101,
      "released": 5102,
      "So": 5103,
      "xe3": 5104,
      "logs": 5105,
      "RET": 5106,
      "acts": 5107,
      "></": 5108,
      "Confi": 5109,
      ">*>*>*>*>*>*>*>*>*>*>*>*>*>*>*>*>*>*>*>*>*>*>*>*>*>*>*>*>*>*>*>*": 5110,
      "find": 5111,
      "first": 5112,
      "xB2": 5113,
      "rout": 5114,
      "JavaScript": 5115,
      "_r": 5116,
      "Lib": 5117,
      "133": 5118,
      "x2e": 5119,
      "sending": 5120,
      "HE": 5121,
      "available": 5122,
      "cas": 5123,
      "141": 5124,
      "1018": 5125,
      "140": 5126,
      "pad": 5127,
      "Team": 5128,
      "ables": 5129,
      "more": 5130,
      "Engine": 5131,
      "Red": 5132,
      "rid": 5133,
      "Online": 5134,
      "_path": 5135,
      "parse": 5136,
      "should": 5137,
      "dump": 5138,
      "Down": 5139,
      "126": 5140,
      "1015": 5141,
      "right": 5142,
      "administrator": 5143,
      "429": 5144,
      "own": 5145,
      "acter": 5146,
      "api": 5147,
      "driver": 5148,
      "])": 5149,
      "xDA": 5150,
      "docId": 5151,
      "exist": 5152,
      "esp": 5153,
      "199": 5154,
      "Sep": 5155,
      "1016": 5156,
      "236": 5157,
      "ink": 5158,
      "pa": 5159,
      "results": 5160,
      "============": 5161,
      "0xff": 5162,
      "modules": 5163,
      "intext": 5164,
      "plorer": 5165,
      "xcf": 5166,
      "Mag": 5167,
      "etc": 5168,
      "Text": 5169,
      "xA2": 5170,
      "\",\"": 5171,
      "sole": 5172,
      "parser": 5173,
      "forgery": 5174,
      "NE": 5175,
      "327": 5176,
      "improper": 5177,
      "valu": 5178,
      "identiality": 5179,
      "Length": 5180,
      "eas": 5181,
      "../../../../": 5182,
      "Pr": 5183,
      "v4": 5184,
      "missing": 5185,
      "servers": 5186,
      "009": 5187,
      "197": 5188,
      ".\\": 5189,
      "sequ": 5190,
      "AME": 5191,
      "ave": 5192,
      "make": 5193,
      "templ": 5194,
      "Win": 5195,
      "ternal": 5196,
      "Saf": 5197,
      "fin": 5198,
      "implementation": 5199,
      "248": 5200,
      "ources": 5201,
      "they": 5202,
      "during": 5203,
      "130": 5204,
      "ures": 5205,
      "eference": 5206,
      "227": 5207,
      "isk": 5208,
      "ateg": 5209,
      "talos": 5210,
      "};": 5211,
      "509": 5212,
      "GU": 5213,
      "HT213": 5214,
      "Dec": 5215,
      "149": 5216,
      "228": 5217,
      "wid": 5218,
      "138": 5219,
      "196": 5220,
      "TALOS": 5221,
      "lk": 5222,
      "uc": 5223,
      "0x43": 5224,
      "Virtual": 5225,
      "talosintelligence": 5226,
      "Per": 5227,
      "who": 5228,
      "113": 5229,
      "BE": 5230,
      "IR": 5231,
      "Unspecified": 5232,
      "Fi": 5233,
      "DP": 5234,
      "NG": 5235,
      "leep": 5236,
      "Document": 5237,
      "place": 5238,
      "235": 5239,
      "library": 5240,
      "x3f": 5241,
      "ler": 5242,
      "295": 5243,
      "Mar": 5244,
      "326": 5245,
      "Time": 5246,
      "_m": 5247,
      "_in": 5248,
      "cpujul": 5249,
      "ever": 5250,
      "247": 5251,
      "emens": 5252,
      "Mozilla": 5253,
      "002": 5254,
      "List": 5255,
      "Esc": 5256,
      "coding": 5257,
      "MA": 5258,
      "230": 5259,
      "opt": 5260,
      "Hub": 5261,
      "mobile": 5262,
      "220": 5263,
      "resolved": 5264,
      "Contain": 5265,
      "xc3": 5266,
      "c4": 5267,
      "Cook": 5268,
      "_data": 5269,
      "atic": 5270,
      "again": 5271,
      "][": 5272,
      "nten": 5273,
      "kannten": 5274,
      "unbekannten": 5275,
      "onent": 5276,
      "xe0": 5277,
      "x8d": 5278,
      "next": 5279,
      "249": 5280,
      "257": 5281,
      "www2": 5282,
      "003": 5283,
      "jo": 5284,
      "_reports": 5285,
      "Ker": 5286,
      "aaaaaaaaaaaaaaaaaaaaaaaaaaaaaaaa": 5287,
      "sourcef": 5288,
      "Missing": 5289,
      "htm": 5290,
      "430": 5291,
      "ZE": 5292,
      "add_": 5293,
      "May": 5294,
      "media": 5295,
      "Rout": 5296,
      "352": 5297,
      "iOS": 5298,
      "valds": 5299,
      "torvalds": 5300,
      "ifier": 5301,
      "198": 5302,
      "167": 5303,
      "FFFF": 5304,
      "R2": 5305,
      "domain": 5306,
      "websites": 5307,
      "=$": 5308,
      "Heap": 5309,
      "0d": 5310,
      "mous": 5311,
      "enabled": 5312,
      "sourceforge": 5313,
      "example": 5314,
      "recv": 5315,
      "ribut": 5316,
      "229": 5317,
      "vol": 5318,
      "Display": 5319,
      "select": 5320,
      "vulnerability_reports": 5321,
      "ssl": 5322,
      "zz": 5323,
      "As": 5324,
      "131": 5325,
      "_h": 5326,
      "curl": 5327,
      "SL": 5328,
      "Advisories": 5329,
      "HT20": 5330,
      "desktop": 5331,
      "0xC0": 5332,
      "112": 5333,
      "their": 5334,
      "operation": 5335,
      "259": 5336,
      "296": 5337,
      "onymous": 5338,
      "0x72": 5339,
      "_text": 5340,
      "guide": 5341,
      "emr_": 5342,
      "195": 5343,
      "159": 5344,
      "emr_na": 5345,
      "xc9": 5346,
      "Dr": 5347,
      "136": 5348,
      "Mac": 5349,
      "disclosed": 5350,
      "includes": 5351,
      "them": 5352,
      "176": 5353,
      "BA": 5354,
      "ception": 5355,
      "coun": 5356,
      "lang": 5357,
      "graph": 5358,
      "148": 5359,
      "0x5C": 5360,
      "Is": 5361,
      "0x69": 5362,
      "failed": 5363,
      ")\"": 5364,
      "udio": 5365,
      "404": 5366,
      "318": 5367,
      "3Bh": 5368,
      "ender": 5369,
      "419": 5370,
      "msg0003": 5371,
      "mid": 5372,
      "send_": 5373,
      "cpuoct": 5374,
      "Valid": 5375,
      "cpujan": 5376,
      "2497": 5377,
      "We": 5378,
      "~*~*": 5379,
      "aj": 5380,
      "affect": 5381,
      "Default": 5382,
      "Series": 5383,
      "Arbitrary": 5384,
      "team": 5385,
      "executed": 5386,
      "techalerts": 5387,
      "Explorer": 5388,
      "401": 5389,
      "CPU": 5390,
      "Payload": 5391,
      "Player": 5392,
      "element": 5393,
      "x3e": 5394,
      "engine": 5395,
      "ten": 5396,
      "pend": 5397,
      "huawei": 5398,
      "ocket": 5399,
      "226": 5400,
      "wireshark": 5401,
      "Post": 5402,
      "TL": 5403,
      "tensor": 5404,
      "268": 5405,
      "ORT": 5406,
      "siemens": 5407,
      "state": 5408,
      "xc1": 5409,
      "179": 5410,
      "Write": 5411,
      "occur": 5412,
      "Mess": 5413,
      "connection": 5414,
      "507": 5415,
      "Li": 5416,
      "Address": 5417,
      "DDDD": 5418,
      "anonymous": 5419,
      "reports": 5420,
      "hps": 5421,
      "0r": 5422,
      "169": 5423,
      "004": 5424,
      "0001": 5425,
      "Mon": 5426,
      "isch": 5427,
      "Daten": 5428,
      "PE": 5429,
      "Jan": 5430,
      "1999": 5431,
      "/-": 5432,
      "145": 5433,
      "escape": 5434,
      "157": 5435,
      "x1c": 5436,
      "Download": 5437,
      "289": 5438,
      "Cookie": 5439,
      "347": 5440,
      "xc7": 5441,
      "allowing": 5442,
      "417": 5443,
      "SOCK": 5444,
      "ZT": 5445,
      "title": 5446,
      "When": 5447,
      "446": 5448,
      "Class": 5449,
      "allowed": 5450,
      "mysql": 5451,
      "mm": 5452,
      "provided": 5453,
      "NAME": 5454,
      "158": 5455,
      "TCP": 5456,
      "rece": 5457,
      "346": 5458,
      "utzt": 5459,
      "genutzt": 5460,
      "ausgenutzt": 5461,
      "lar": 5462,
      "VER": 5463,
      "338": 5464,
      "122": 5465,
      "ari": 5466,
      "usage": 5467,
      "Test": 5468,
      "lp": 5469,
      "GE": 5470,
      "246": 5471,
      "Af": 5472,
      "xc2": 5473,
      "posure": 5474,
      "Jul": 5475,
      "0x6F": 5476,
      "IOS": 5477,
      "spoof": 5478,
      "trans": 5479,
      "tensorflow": 5480,
      "Config": 5481,
      "restricted": 5482,
      "ton": 5483,
      "187": 5484,
      "tho": 5485,
      "macOS": 5486,
      "316": 5487,
      "1035": 5488,
      "icy": 5489,
      "186": 5490,
      "tiv": 5491,
      "0xF0": 5492,
      "');": 5493,
      "classified": 5494,
      "util": 5495,
      "Cor": 5496,
      "3Ba": 5497,
      "being": 5498,
      "Comm": 5499,
      "SP2": 5500,
      "aris": 5501,
      "alph": 5502,
      "rb": 5503,
      "u_": 5504,
      "rv": 5505,
      "msg00001": 5506,
      "265": 5507,
      "175": 5508,
      "bed": 5509,
      "match": 5510,
      "power": 5511,
      "298": 5512,
      "439": 5513,
      "FS": 5514,
      "0x64": 5515,
      "Argu": 5516,
      "428": 5517,
      "person": 5518,
      "3c": 5519,
      "Vulnerable": 5520,
      "monstr": 5521,
      "Ang": 5522,
      "276": 5523,
      "Kit": 5524,
      "121": 5525,
      "max": 5526,
      "hpsc": 5527,
      "resulting": 5528,
      "xf4": 5529,
      "Disposition": 5530,
      "tags": 5531,
      "258": 5532,
      "invalid": 5533,
      "582497": 5534,
      "Active": 5535,
      "x7c": 5536,
      "Reader": 5537,
      "around": 5538,
      "xd9": 5539,
      "Escal": 5540,
      "nor": 5541,
      "0x73": 5542,
      "share": 5543,
      ".=\"": 5544,
      "Reg": 5545,
      "PDF": 5546,
      "copy": 5547,
      "R3": 5548,
      "hardware": 5549,
      "Chrome": 5550,
      "178": 5551,
      "agent": 5552,
      "x1e": 5553,
      "psirt": 5554,
      "NET": 5555,
      "ssa": 5556,
      "00000": 5557,
      "IS": 5558,
      "266": 5559,
      "cons": 5560,
      "insert": 5561,
      "348": 5562,
      "ping": 5563,
      "349": 5564,
      "445": 5565,
      "IE": 5566,
      "UP": 5567,
      "156": 5568,
      "fp": 5569,
      "req": 5570,
      "steal": 5571,
      "Angriff": 5572,
      "Offic": 5573,
      "memcpy": 5574,
      "Module": 5575,
      "x1f": 5576,
      "Submit": 5577,
      "TY": 5578,
      "xc6": 5579,
      "155": 5580,
      "Object": 5581,
      "Ret": 5582,
      "store": 5583,
      "eway": 5584,
      "Refl": 5585,
      "0x0F": 5586,
      "Escalation": 5587,
      "nology": 5588,
      "van": 5589,
      "verify": 5590,
      "Send": 5591,
      "337": 5592,
      "demonstr": 5593,
      "Pub": 5594,
      "iss": 5595,
      "Jenkins": 5596,
      "LR": 5597,
      "ople": 5598,
      "xd0": 5599,
      "common": 5600,
      "gp": 5601,
      "xb1": 5602,
      "SAP": 5603,
      "might": 5604,
      "MM": 5605,
      "tification": 5606,
      "188": 5607,
      "cpuapr": 5608,
      "Box": 5609,
      "xef": 5610,
      "0x40": 5611,
      "435": 5612,
      "novell": 5613,
      "Special": 5614,
      "238": 5615,
      "fire": 5616,
      "functions": 5617,
      "peer": 5618,
      "438": 5619,
      "147": 5620,
      "below": 5621,
      "ios": 5622,
      "URI": 5623,
      "werk": 5624,
      "0b": 5625,
      "Business": 5626,
      "abo": 5627,
      "185": 5628,
      "DA": 5629,
      "_port": 5630,
      "ING": 5631,
      "~~~~~~~~~~~~~~~~": 5632,
      "Research": 5633,
      "impacts": 5634,
      "hacker": 5635,
      "consu": 5636,
      "285": 5637,
      "Kernel": 5638,
      "Apr": 5639,
      "xfa": 5640,
      "/-/": 5641,
      "same": 5642,
      "rix": 5643,
      "297": 5644,
      "(&": 5645,
      "lying": 5646,
      "ateway": 5647,
      "font": 5648,
      "PRO": 5649,
      "Office": 5650,
      "0c": 5651,
      "Containing": 5652,
      "sung": 5653,
      "449": 5654,
      "After": 5655,
      "ectr": 5656,
      "146": 5657,
      "permission": 5658,
      "her": 5659,
      "\"%": 5660,
      "245": 5661,
      "Release": 5662,
      "336": 5663,
      "Services": 5664,
      "click": 5665,
      "9999": 5666,
      "x2c": 5667,
      "_mail": 5668,
      "a1": 5669,
      "home": 5670,
      "Sm": 5671,
      "Back": 5672,
      "EB": 5673,
      "ecure": 5674,
      "Rec": 5675,
      "move": 5676,
      "Sec": 5677,
      "403": 5678,
      "Elements": 5679,
      "encryp": 5680,
      "x3a": 5681,
      "Users": 5682,
      "0f": 5683,
      "0x05": 5684,
      "forms": 5685,
      "x2d": 5686,
      "_b": 5687,
      "aring": 5688,
      "Patch": 5689,
      "drupal": 5690,
      "Joomla": 5691,
      "Media": 5692,
      "a2": 5693,
      "LECT": 5694,
      "[$": 5695,
      "335": 5696,
      "_ST": 5697,
      "global": 5698,
      "Me": 5699,
      "OK": 5700,
      "PA": 5701,
      "sleep": 5702,
      "CON": 5703,
      "upgrade": 5704,
      "pos": 5705,
      ",$": 5706,
      "x5e": 5707,
      "Score": 5708,
      "239": 5709,
      "299": 5710,
      "ded": 5711,
      "wv": 5712,
      "labs": 5713,
      "msg00000": 5714,
      "ging": 5715,
      "448": 5716,
      "311": 5717,
      "325": 5718,
      "App": 5719,
      "436": 5720,
      "WQ": 5721,
      "SELECT": 5722,
      "0003": 5723,
      "Create": 5724,
      "277": 5725,
      "x8c": 5726,
      "xfd": 5727,
      "EAX": 5728,
      "189": 5729,
      "x3d": 5730,
      "plian": 5731,
      "og": 5732,
      "x2a": 5733,
      "Reflected": 5734,
      "c_": 5735,
      "c2": 5736,
      "zero": 5737,
      "Col": 5738,
      "165": 5739,
      "IOC": 5740,
      "color": 5741,
      "xec": 5742,
      "SP1": 5743,
      "underlying": 5744,
      "CF": 5745,
      "190": 5746,
      "x1a": 5747,
      "rand_text": 5748,
      "166": 5749,
      "like": 5750,
      "Us": 5751,
      "spl": 5752,
      "zwerk": 5753,
      "projects": 5754,
      "processing": 5755,
      "SIZE": 5756,
      "igned": 5757,
      "Tok": 5758,
      "fedora": 5759,
      "135": 5760,
      "del": 5761,
      "RP": 5762,
      "identifier": 5763,
      "]=": 5764,
      "usr": 5765,
      "Vector": 5766,
      "incorrect": 5767,
      ")\\": 5768,
      "Gr": 5769,
      "parsing": 5770,
      "Sensitive": 5771,
      "yle": 5772,
      "character": 5773,
      "fields": 5774,
      "v6": 5775,
      "x7a": 5776,
      "ling": 5777,
      "286": 5778,
      "systems": 5779,
      "Netzwerk": 5780,
      "177": 5781,
      "contents": 5782,
      "011": 5783,
      "variable": 5784,
      "ga": 5785,
      "ka": 5786,
      "MI": 5787,
      "241": 5788,
      "rest": 5789,
      "integer": 5790,
      "Datei": 5791,
      "services": 5792,
      "jav": 5793,
      "location": 5794,
      "GitHub": 5795,
      "über": 5796,
      "TS": 5797,
      "pid": 5798,
      "extension": 5799,
      "aspx": 5800,
      "WN": 5801,
      "amp": 5802,
      "lind": 5803,
      "0x6E": 5804,
      "437": 5805,
      "x5f": 5806,
      "CB": 5807,
      "endar": 5808,
      "275": 5809,
      "{$": 5810,
      "9p": 5811,
      "LD": 5812,
      "ular": 5813,
      "Validation": 5814,
      "item": 5815,
      "xa8": 5816,
      "fü": 5817,
      "3f": 5818,
      "Pack": 5819,
      "3Ccvs": 5820,
      "5D": 5821,
      "_d": 5822,
      "resources": 5823,
      "ier": 5824,
      "!]": 5825,
      "feature": 5826,
      "rev": 5827,
      "dereference": 5828,
      "enda": 5829,
      "5B": 5830,
      "above": 5831,
      "astore": 5832,
      "attach": 5833,
      "bro": 5834,
      "386": 5835,
      "0a": 5836,
      "Connect": 5837,
      "sfp_": 5838,
      "ploy": 5839,
      "Form": 5840,
      "values": 5841,
      "ph_mail": 5842,
      "sfph_mail": 5843,
      "sfp_email": 5844,
      "039": 5845,
      "Report": 5846,
      "3e": 5847,
      "x5c": 5848,
      "alter": 5849,
      "Portal": 5850,
      "t_": 5851,
      "-----------------------------": 5852,
      "Bl": 5853,
      "nil": 5854,
      "237": 5855,
      "f2": 5856,
      "productcert": 5857,
      "_INET": 5858,
      "Ab": 5859,
      "datastore": 5860,
      "fac": 5861,
      "328": 5862,
      "c1": 5863,
      "000003": 5864,
      "0x46": 5865,
      "community": 5866,
      "ASA": 5867,
      "validate": 5868,
      "160": 5869,
      "319": 5870,
      "=\\\"": 5871,
      "377": 5872,
      "xbf": 5873,
      "mach": 5874,
      "super": 5875,
      "267": 5876,
      "MT": 5877,
      "xfb": 5878,
      "ichen": 5879,
      "xd8": 5880,
      "emon": 5881,
      "configu": 5882,
      "WH": 5883,
      "232": 5884,
      "<?": 5885,
      "313": 5886,
      "Work": 5887,
      "iP": 5888,
      "istent": 5889,
      "handler": 5890,
      "Run": 5891,
      "_F": 5892,
      "stderr": 5893,
      "zur": 5894,
      "orig": 5895,
      "0x7F": 5896,
      "r10": 5897,
      "FreeBSD": 5898,
      "staging": 5899,
      "315": 5900,
      "depend": 5901,
      "comment": 5902,
      "ilder": 5903,
      "ö": 5904,
      "DOS": 5905,
      "_1": 5906,
      "//": 5907,
      "mark": 5908,
      "refl": 5909,
      "active": 5910,
      "/\\": 5911,
      "hun": 5912,
      "1041": 5913,
      "flag": 5914,
      "USER": 5915,
      "ARGV": 5916,
      "_info": 5917,
      "787": 5918,
      "formed": 5919,
      "0x63": 5920,
      "456": 5921,
      "ATH": 5922,
      "ascript": 5923,
      "180": 5924,
      "füg": 5925,
      "sockaddr": 5926,
      "Secure": 5927,
      "controlled": 5928,
      "CTI": 5929,
      "_uri": 5930,
      "entl": 5931,
      "Framework": 5932,
      "pk": 5933,
      "ZX": 5934,
      "279": 5935,
      "xce": 5936,
      "Suite": 5937,
      "watch": 5938,
      "aly": 5939,
      "save": 5940,
      "278": 5941,
      "WR": 5942,
      "FD": 5943,
      "IOB": 5944,
      "██": 5945,
      "144": 5946,
      "player": 5947,
      "ale": 5948,
      "sent": 5949,
      "Size": 5950,
      "very": 5951,
      "\":\"": 5952,
      "329": 5953,
      "Call": 5954,
      "öff": 5955,
      "x8a": 5956,
      "Verfüg": 5957,
      "entlichen": 5958,
      "Verfügung": 5959,
      "One": 5960,
      "task": 5961,
      "steht": 5962,
      "öffentlichen": 5963,
      "multi": 5964,
      "SET": 5965,
      "304": 5966,
      "xb8": 5967,
      "to_": 5968,
      "intended": 5969,
      "Stat": 5970,
      "...\\": 5971,
      "FO": 5972,
      "VP": 5973,
      "People": 5974,
      "_set": 5975,
      "487": 5976,
      "0000000000000000000000000000000000000000000000000000000000000000": 5977,
      "Edition": 5978,
      "boot": 5979,
      "xd6": 5980,
      "170": 5981,
      "cli": 5982,
      "lackware": 5983,
      "disable": 5984,
      "Socket": 5985,
      "uby": 5986,
      "Indic": 5987,
      "5f": 5988,
      "e4": 5989,
      "gets": 5990,
      "python": 5991,
      "284": 5992,
      "against": 5993,
      "xxxxxxxxxxxxxxxxxxxxxxxxxxxxxxxx": 5994,
      "xe5": 5995,
      "how": 5996,
      "Simple": 5997,
      "party": 5998,
      "rand_text_": 5999,
      "messages": 6000,
      "::::::::": 6001,
      "080": 6002,
      "x9c": 6003,
      "asset": 6004,
      "g_": 6005,
      "Ass": 6006,
      "Indicators": 6007,
      "commer": 6008,
      "cn": 6009,
      "Dork": 6010,
      "erial": 6011,
      "Conf": 6012,
      "IV": 6013,
      "Ij": 6014,
      "wa": 6015,
      "1040": 6016,
      "132": 6017,
      "SYS": 6018,
      "RETN": 6019,
      "ories": 6020,
      "OF": 6021,
      "xc5": 6022,
      "3r": 6023,
      "see": 6024,
      "x8f": 6025,
      "x7f": 6026,
      "third": 6027,
      "339": 6028,
      "IM": 6029,
      "ital": 6030,
      "Search": 6031,
      "Magick": 6032,
      "Cloud": 6033,
      "Ht": 6034,
      "xdb": 6035,
      "3a": 6036,
      "Incorrect": 6037,
      "224": 6038,
      "4646": 6039,
      "w0": 6040,
      "!\\": 6041,
      "489": 6042,
      "xa0": 6043,
      "124": 6044,
      "requires": 6045,
      "debug": 6046,
      "Pol": 6047,
      "xf9": 6048,
      "Gro": 6049,
      "memset": 6050,
      "Mod": 6051,
      "categ": 6052,
      "SH": 6053,
      "0x84": 6054,
      "certificate": 6055,
      "xa2": 6056,
      "ections": 6057,
      "VMware": 6058,
      "330": 6059,
      "Language": 6060,
      "website": 6061,
      "Arguments": 6062,
      "20200": 6063,
      "x3b": 6064,
      "161": 6065,
      "KE": 6066,
      "x7e": 6067,
      "qual": 6068,
      "Av": 6069,
      "f4": 6070,
      "=%": 6071,
      "serv": 6072,
      "docDisplay": 6073,
      "kee": 6074,
      "side": 6075,
      "inet": 6076,
      "[\"": 6077,
      "xcc": 6078,
      "'],": 6079,
      "\"[+]": 6080,
      "IOA": 6081,
      "zi": 6082,
      "f1": 6083,
      "ently": 6084,
      "space": 6085,
      "works": 6086,
      "Component": 6087,
      "0002": 6088,
      "xd2": 6089,
      "actions": 6090,
      "x2b": 6091,
      "ini": 6092,
      "317": 6093,
      "last": 6094,
      "dist": 6095,
      "guest": 6096,
      "WW": 6097,
      "Force": 6098,
      "DC": 6099,
      "mant": 6100,
      "googl": 6101,
      "_RE": 6102,
      "failure": 6103,
      "Note": 6104,
      "hpe": 6105,
      "do_": 6106,
      "447": 6107,
      "Mob": 6108,
      "0x44": 6109,
      "redirect": 6110,
      "xa1": 6111,
      ":*": 6112,
      "crbug": 6113,
      "demonstrated": 6114,
      "xf6": 6115,
      "ChangeLog": 6116,
      "RV": 6117,
      "MSF": 6118,
      "visit": 6119,
      "sim": 6120,
      "','": 6121,
      "With": 6122,
      "containing": 6123,
      "Prot": 6124,
      "AF_INET": 6125,
      "commerce": 6126,
      "real": 6127,
      "DNS": 6128,
      "PG": 6129,
      "xaa": 6130,
      "x9f": 6131,
      "?>": 6132,
      "358": 6133,
      "ready": 6134,
      "DWORD": 6135,
      "Oct": 6136,
      "atter": 6137,
      "320": 6138,
      "cam": 6139,
      "/+": 6140,
      "134": 6141,
      "365": 6142,
      "488": 6143,
      "bount": 6144,
      "Title": 6145,
      "rand_text_alph": 6146,
      "Arch": 6147,
      "GI": 6148,
      "Of": 6149,
      "addressed": 6150,
      "ora": 6151,
      "VMSA": 6152,
      "b2lk": 6153,
      "viron": 6154,
      "Session": 6155,
      "googleblog": 6156,
      "packets": 6157,
      "d4": 6158,
      "367": 6159,
      "LIN": 6160,
      "ze": 6161,
      "anch": 6162,
      "company": 6163,
      "1111111111111111": 6164,
      "mc": 6165,
      "010": 6166,
      "WS": 6167,
      "Usage": 6168,
      "368": 6169,
      "%%": 6170,
      "0x68": 6171,
      "Respon": 6172,
      "[!]": 6173,
      "359": 6174,
      "389": 6175,
      "GG": 6176,
      "diff": 6177,
      "chromereleases": 6178,
      "ader": 6179,
      "CL": 6180,
      "Inst": 6181,
      "Cred": 6182,
      "True": 6183,
      "------": 6184,
      "\"$": 6185,
      "Aug": 6186,
      "xd1": 6187,
      "655": 6188,
      "324": 6189,
      "3Cdev": 6190,
      "Found": 6191,
      "pliance": 6192,
      "xf5": 6193,
      "862": 6194,
      "Rank": 6195,
      "x8e": 6196,
      "sharing": 6197,
      "xea": 6198,
      "manage": 6199,
      "xd3": 6200,
      "J5d": 6201,
      "guard": 6202,
      "360": 6203,
      "lu": 6204,
      "son": 6205,
      "loop": 6206,
      "reads": 6207,
      "ains": 6208,
      "J5dGU": 6209,
      "div": 6210,
      "xa3": 6211,
      "ings": 6212,
      "security_center": 6213,
      "310": 6214,
      "tract": 6215,
      "cription": 6216,
      "a_": 6217,
      "present": 6218,
      "const": 6219,
      "260": 6220,
      "large": 6221,
      "AAAAAAAAAAAAAAAAAAAAAAAAAAAAAAAAAAAAAAAAAAAAAAAAAAAAAAAAAAAAAAAAAAAAAAAAAAAAAAAAAAAAAAAAAAAAAAAAAAAAAAAAAAAAAAAAAAAAAAAAAAAAAAAA": 6222,
      "ON": 6223,
      "jan": 6224,
      "XRl": 6225,
      "template": 6226,
      "6e": 6227,
      "origin": 6228,
      "ixel": 6229,
      "bind": 6230,
      "090": 6231,
      "1030": 6232,
      "fu": 6233,
      "internal": 6234,
      "ecx": 6235,
      "QA": 6236,
      "conduct": 6237,
      "Pre": 6238,
      "urch": 6239,
      "000003000003": 6240,
      "topic": 6241,
      "Commun": 6242,
      "9pZ": 6243,
      "Ynl": 6244,
      "0ZT": 6245,
      "take": 6246,
      "\"><": 6247,
      "auto": 6248,
      "312": 6249,
      "reflected": 6250,
      "322": 6251,
      "d2": 6252,
      "CSC": 6253,
      "Auto": 6254,
      "x1b": 6255,
      "Ynl0ZT": 6256,
      "even": 6257,
      "dm9pZ": 6258,
      "administrative": 6259,
      "o3": 6260,
      "sanitization": 6261,
      "Rex": 6262,
      "icsa": 6263,
      "0x47": 6264,
      "Gu": 6265,
      "0x70": 6266,
      "RB": 6267,
      "ireless": 6268,
      "env": 6269,
      "ROM": 6270,
      "a4": 6271,
      "micro": 6272,
      "369": 6273,
      "459": 6274,
      "dout": 6275,
      "379": 6276,
      "././": 6277,
      "expected": 6278,
      "pb": 6279,
      "look": 6280,
      "0005": 6281,
      "encode": 6282,
      "tel": 6283,
      "QB": 6284,
      "ND": 6285,
      "Proof": 6286,
      "Home": 6287,
      "pm": 6288,
      "names": 6289,
      "Disco": 6290,
      "dest": 6291,
      "xd5": 6292,
      "Dri": 6293,
      "POP": 6294,
      "xc8": 6295,
      "framework": 6296,
      "Element": 6297,
      "888": 6298,
      "Feb": 6299,
      "Codes": 6300,
      "solve": 6301,
      "Es": 6302,
      "external": 6303,
      "virt": 6304,
      "launchpad": 6305,
      "Start": 6306,
      "huntr": 6307,
      "VO": 6308,
      "Param": 6309,
      "xwiki": 6310,
      "xb3": 6311,
      "0x3F": 6312,
      "phere": 6313,
      "profile": 6314,
      "applications": 6315,
      "ImageMagick": 6316,
      "bers": 6317,
      "RC": 6318,
      "evil": 6319,
      "stdout": 6320,
      "overwrite": 6321,
      "xa6": 6322,
      "coder": 6323,
      "1019": 6324,
      "ieXRl": 6325,
      "Shop": 6326,
      "485": 6327,
      "Administr": 6328,
      "021": 6329,
      "xf7": 6330,
      "passwords": 6331,
      "0xFC": 6332,
      "20000": 6333,
      "Hel": 6334,
      "shop": 6335,
      "private": 6336,
      "created": 6337,
      "253": 6338,
      "476": 6339,
      "bounties": 6340,
      "Tenda": 6341,
      "WebKit": 6342,
      "Â": 6343,
      "passwd": 6344,
      "0x77": 6345,
      "Oper": 6346,
      "Handler": 6347,
      "jw": 6348,
      "Upgrade": 6349,
      "ieXRlPj": 6350,
      "VJ": 6351,
      "attemp": 6352,
      "0x48": 6353,
      "1027": 6354,
      "Message": 6355,
      "x5d": 6356,
      "Cop": 6357,
      "-------": 6358,
      "tool": 6359,
      "keeper": 6360,
      "ict": 6361,
      "Fir": 6362,
      "457": 6363,
      "checks": 6364,
      "6f": 6365,
      "_size": 6366,
      "399": 6367,
      "Zva": 6368,
      "xd4": 6369,
      "JVNDB": 6370,
      "slackware": 6371,
      "Group": 6372,
      "xa4": 6373,
      "ZvaWQ": 6374,
      "xe4": 6375,
      "middle": 6376,
      "x5b": 6377,
      "com_": 6378,
      "0x2C": 6379,
      "397": 6380,
      "vmware": 6381,
      "426": 6382,
      "msg00002": 6383,
      "biz": 6384,
      "safe": 6385,
      "adding": 6386,
      "355": 6387,
      "(-": 6388,
      "urse": 6389,
      "har": 6390,
      "221": 6391,
      "385": 6392,
      "except": 6393,
      "developers": 6394,
      "hijack": 6395,
      "cisa": 6396,
      "356": 6397,
      "Opt": 6398,
      "398": 6399,
      "contact": 6400,
      "357": 6401,
      "These": 6402,
      "DLL": 6403,
      "Commer": 6404,
      "timeout": 6405,
      "RU": 6406,
      "0x66": 6407,
      "290": 6408,
      "False": 6409,
      "lex": 6410,
      "x9a": 6411,
      "2_": 6412,
      "0100": 6413,
      "integrity": 6414,
      "6b": 6415,
      "223": 6416,
      "asc": 6417,
      "sunsolve": 6418,
      "swg216": 6419,
      "ray": 6420,
      "0x62": 6421,
      "nu": 6422,
      "raw": 6423,
      "random": 6424,
      "ube": 6425,
      "1025": 6426,
      "GX": 6427,
      "6c": 6428,
      "CAN": 6429,
      "434": 6430,
      "Supported": 6431,
      "467": 6432,
      "tv": 6433,
      "woo": 6434,
      "280": 6435,
      "Program": 6436,
      "495": 6437,
      "xf2": 6438,
      "222": 6439,
      "Exploitation": 6440,
      "AE": 6441,
      "reset": 6442,
      "340": 6443,
      "0x32": 6444,
      "Acrobat": 6445,
      "revision": 6446,
      "378": 6447,
      "references": 6448,
      "backup": 6449,
      "resource": 6450,
      "polic": 6451,
      "mption": 6452,
      "COM": 6453,
      "susp": 6454,
      "installations": 6455,
      "_X": 6456,
      "Http": 6457,
      "FROM": 6458,
      "kit": 6459,
      "online": 6460,
      "heets": 6461,
      "xdc": 6462,
      "414": 6463,
      "uman": 6464,
      "affic": 6465,
      "objects": 6466,
      "0x50": 6467,
      "High": 6468,
      "ai": 6469,
      "reen": 6470,
      "typo3": 6471,
      "RCE": 6472,
      "embed": 6473,
      "d1": 6474,
      "QQ": 6475,
      "366": 6476,
      "xa9": 6477,
      "458": 6478,
      "men": 6479,
      "469": 6480,
      "Codester": 6481,
      "_user": 6482,
      "499": 6483,
      "7f": 6484,
      "Email": 6485,
      "member": 6486,
      "SourceCodester": 6487,
      "x1d": 6488,
      "identified": 6489,
      "img": 6490,
      "PS": 6491,
      "activ": 6492,
      "_url": 6493,
      "Fa": 6494,
      "h205": 6495,
      "later": 6496,
      "medi": 6497,
      "ses": 6498,
      "Insecure": 6499,
      "030": 6500,
      "News": 6501,
      "MAT": 6502,
      "shtml": 6503,
      "143": 6504,
      "inline": 6505,
      "en_us": 6506,
      "Device": 6507,
      "465": 6508,
      "alled": 6509,
      "day": 6510,
      "e1": 6511,
      "468": 6512,
      "uint": 6513,
      "xed": 6514,
      "simple": 6515,
      "eff": 6516,
      "600": 6517,
      "027": 6518,
      "empt": 6519,
      "FA": 6520,
      "each": 6521,
      "ieren": 6522,
      "malformed": 6523,
      "patched": 6524,
      "{\"": 6525,
      "just": 6526,
      "Mobile": 6527,
      "language": 6528,
      "dell": 6529,
      "Encoding": 6530,
      "455": 6531,
      "(),": 6532,
      "_GET": 6533,
      "e2": 6534,
      "xaf": 6535,
      "Corr": 6536,
      "0x2E": 6537,
      "ames": 6538,
      "Di": 6539,
      "Int": 6540,
      "Restric": 6541,
      "javascript": 6542,
      "another": 6543,
      "TTP": 6544,
      "ward": 6545,
      "PH": 6546,
      "=-=-=-=-=-=-=-=-=-=-=-=-=-=-=-=-": 6547,
      "0004": 6548,
      "254": 6549,
      "_64": 6550,
      "252": 6551,
      "????????????????": 6552,
      "Commerce": 6553,
      "W5": 6554,
      "wever": 6555,
      "El": 6556,
      "PM": 6557,
      "6d": 6558,
      "ived": 6559,
      "+\\": 6560,
      "sufficiently": 6561,
      "cookies": 6562,
      "388": 6563,
      "normal": 6564,
      "0x45": 6565,
      "sever": 6566,
      "====================": 6567,
      "icket": 6568,
      "xbb": 6569,
      "unction": 6570,
      "RH": 6571,
      "did": 6572,
      "424": 6573,
      "retri": 6574,
      "emu": 6575,
      "frame": 6576,
      "CI": 6577,
      "Vis": 6578,
      "xbc": 6579,
      "xdf": 6580,
      "200R": 6581,
      "00000000000000": 6582,
      "Gateway": 6583,
      "Issu": 6584,
      "Point": 6585,
      "xee": 6586,
      "parti": 6587,
      "Controller": 6588,
      "dig": 6589,
      "gallery": 6590,
      ";;": 6591,
      "E_": 6592,
      "JS": 6593,
      "xbe": 6594,
      "Book": 6595,
      "assetkey": 6596,
      "were": 6597,
      "}\\": 6598,
      "V200R": 6599,
      "ei": 6600,
      "ajax": 6601,
      "ridge": 6602,
      "png": 6603,
      "Exposure": 6604,
      "��": 6605,
      "41414141": 6606,
      "vironment": 6607,
      "Sun": 6608,
      "style": 6609,
      "configured": 6610,
      "bar": 6611,
      "jenkins": 6612,
      "xca": 6613,
      "x7d": 6614,
      "hack": 6615,
      "era": 6616,
      "FG": 6617,
      ">\\": 6618,
      "restrictions": 6619,
      "ws": 6620,
      "folder": 6621,
      "poc": 6622,
      "DIR": 6623,
      "xa7": 6624,
      "Tools": 6625,
      "inclusion": 6626,
      "description": 6627,
      "ops": 6628,
      "0x75": 6629,
      "1026": 6630,
      "t5": 6631,
      "Contact": 6632,
      "asic": 6633,
      "/%": 6634,
      "authorization": 6635,
      "notification": 6636,
      "Cal": 6637,
      "b4": 6638,
      "9f": 6639,
      "swg1": 6640,
      "Block": 6641,
      "ban": 6642,
      "ction": 6643,
      "hang": 6644,
      "LAN": 6645,
      "b1": 6646,
      "krit": 6647,
      "Io": 6648,
      "msg00003": 6649,
      "RIP": 6650,
      "dw": 6651,
      "kritisch": 6652,
      "BY": 6653,
      "Ma": 6654,
      "Solaris": 6655,
      "202103": 6656,
      "/*": 6657,
      "Off": 6658,
      "late": 6659,
      "VD": 6660,
      "xad": 6661,
      "pf": 6662,
      "496": 6663,
      "LT": 6664,
      "v0": 6665,
      "ERR": 6666,
      "Resource": 6667,
      "Index": 6668,
      "Se": 6669,
      "operating": 6670,
      "*(": 6671,
      "obj": 6672,
      "194": 6673,
      "acrobat": 6674,
      "BUX": 6675,
      "nv": 6676,
      "disc": 6677,
      "qualcomm": 6678,
      "193": 6679,
      "0x6C": 6680,
      "Char": 6681,
      "xd7": 6682,
      "xac": 6683,
      "hostname": 6684,
      "oci": 6685,
      "387": 6686,
      "empty": 6687,
      "edi": 6688,
      "cve201": 6689,
      "End": 6690,
      "gist": 6691,
      "(.": 6692,
      "5c": 6693,
      "!!!!": 6694,
      "497": 6695,
      "Copy": 6696,
      "protection": 6697,
      "Le": 6698,
      "Wiki": 6699,
      "quid": 6700,
      "033": 6701,
      "announcement": 6702,
      "HPSBUX": 6703,
      "AH": 6704,
      "450": 6705,
      "PF": 6706,
      "$$$$": 6707,
      "xcb": 6708,
      ")+": 6709,
      "editor": 6710,
      "split": 6711,
      "witch": 6712,
      "ucture": 6713,
      "V1": 6714,
      "TH": 6715,
      "314": 6716,
      "switch": 6717,
      "supported": 6718,
      "workaround": 6719,
      "az": 6720,
      "ribute": 6721,
      "xb9": 6722,
      "downloads": 6723,
      "184": 6724,
      "012": 6725,
      "Corruption": 6726,
      "GS": 6727,
      "Real": 6728,
      "installed": 6729,
      "ift": 6730,
      "402": 6731,
      "HPSBM": 6732,
      "478": 6733,
      "Response": 6734,
      "Funk": 6735,
      "xab": 6736,
      "xen": 6737,
      "handles": 6738,
      "Sam": 6739,
      "375": 6740,
      "413": 6741,
      "rt": 6742,
      "Gallery": 6743,
      "395": 6744,
      "record": 6745,
      "most": 6746,
      "350": 6747,
      "pho": 6748,
      "injected": 6749,
      "scan": 6750,
      "ruby": 6751,
      "ICSA": 6752,
      "Load": 6753,
      "_C": 6754,
      "patches": 6755,
      "register_": 6756,
      "signific": 6757,
      "Exploiting": 6758,
      "escaping": 6759,
      "DS": 6760,
      "270": 6761,
      "xb4": 6762,
      "396": 6763,
      "1029": 6764,
      "ki": 6765,
      "theme": 6766,
      "etch": 6767,
      "quer": 6768,
      "mission": 6769,
      "daemon": 6770,
      "xde": 6771,
      "ssh": 6772,
      "logged": 6773,
      "BBBBBBBB": 6774,
      "(\"[+]": 6775,
      "eter": 6776,
      "@@@@@@@@": 6777,
      "sploit": 6778,
      "erer": 6779,
      "pixel": 6780,
      "rs": 6781,
      "666": 6782,
      "x7b": 6783,
      "prevent": 6784,
      "7c": 6785,
      "xda": 6786,
      "C00": 6787,
      ">]": 6788,
      "jvndb": 6789,
      "0010": 6790,
      "edu": 6791,
      "v5": 6792,
      "gin": 6793,
      "479": 6794,
      "Integer": 6795,
      "flash": 6796,
      "048": 6797,
      "Uni": 6798,
      "You": 6799,
      "bird": 6800,
      "Funktion": 6801,
      "video": 6802,
      "anis": 6803,
      "significant": 6804,
      "astr": 6805,
      "mlink": 6806,
      "Ju": 6807,
      "successfully": 6808,
      "ero": 6809,
      "Share": 6810,
      "D0": 6811,
      "resp": 6812,
      "HT212": 6813,
      "amily": 6814,
      "section": 6815,
      "Database": 6816,
      "know": 6817,
      "cpp": 6818,
      "ALL": 6819,
      "264": 6820,
      "174": 6821,
      "already": 6822,
      "binary": 6823,
      "YX": 6824,
      "V2": 6825,
      "urther": 6826,
      "unsusp": 6827,
      "samsung": 6828,
      "ocial": 6829,
      "ebx": 6830,
      "chain": 6831,
      "unsuspecting": 6832,
      "xba": 6833,
      "MSM": 6834,
      "localhost": 6835,
      "PSA": 6836,
      "Ph": 6837,
      "cel": 6838,
      "Powered": 6839,
      "20100": 6840,
      "ically": 6841,
      "Some": 6842,
      "049": 6843,
      "Over": 6844,
      "groups": 6845,
      "yper": 6846,
      "trust": 6847,
      "486": 6848,
      "657": 6849,
      "secon": 6850,
      "confidentiality": 6851,
      "job": 6852,
      "998": 6853,
      "IF": 6854,
      "ed_": 6855,
      "operations": 6856,
      "L2": 6857,
      "ActiveX": 6858,
      "publish": 6859,
      "sms": 6860,
      "Direct": 6861,
      "iter": 6862,
      "eld": 6863,
      "Cle": 6864,
      "0x09": 6865,
      "Exception": 6866,
      "etz": 6867,
      "Bound": 6868,
      "0006": 6869,
      "ato": 6870,
      "Autom": 6871,
      "events": 6872,
      "gear": 6873,
      "ya": 6874,
      "reading": 6875,
      "0008": 6876,
      "475": 6877,
      "798": 6878,
      "Go": 6879,
      "edx": 6880,
      "year": 6881,
      "0x55": 6882,
      "466": 6883,
      "MDM": 6884,
      "412": 6885,
      "assigned": 6886,
      "Video": 6887,
      "bad": 6888,
      "zone": 6889,
      "################################": 6890,
      "images": 6891,
      "sum": 6892,
      "TEM": 6893,
      "Integrity": 6894,
      "PK": 6895,
      "SB": 6896,
      "availability": 6897,
      "_code": 6898,
      "Concept": 6899,
      "SESS": 6900,
      "}\")": 6901,
      "xae": 6902,
      ">*>*>*>*>*>*>*>*>*>*>*>*>*>*>*>*>*>*>*>*>*>*>*>*>*>*>*>*>*>*>*>*>*>*>*>*>*>*>*>*>*>*>*>*>*>*>*>*>*>*>*>*>*>*>*>*>*>*>*>*>*>*>*>*": 6903,
      "rd": 6904,
      ")(": 6905,
      "ath": 6906,
      "insecure": 6907,
      "Stream": 6908,
      "244": 6909,
      "mk": 6910,
      "SSH": 6911,
      "Intel": 6912,
      "0x14": 6913,
      "Ro": 6914,
      "eed": 6915,
      "058": 6916,
      "153": 6917,
      "037": 6918,
      "302": 6919,
      "xa5": 6920,
      "477": 6921,
      "Confidentiality": 6922,
      "bot": 6923,
      "endpoint": 6924,
      "controller": 6925,
      "vb": 6926,
      "038": 6927,
      "router": 6928,
      "IA": 6929,
      "047": 6930,
      "++++++++++++++++": 6931,
      ">=": 6932,
      "164": 6933,
      "READ": 6934,
      "request_": 6935,
      "esi": 6936,
      "andbox": 6937,
      "annot": 6938,
      "thing": 6939,
      "xb6": 6940,
      "*)&": 6941,
      "\"<": 6942,
      "frastr": 6943,
      "vulnerabilities_24": 6944,
      "Event": 6945,
      "aya": 6946,
      "pp": 6947,
      "els": 6948,
      "perl": 6949,
      "changelog": 6950,
      "Details": 6951,
      "_B": 6952,
      "frastructure": 6953,
      "Array": 6954,
      "0000000": 6955,
      "Num": 6956,
      "peat": 6957,
      "183": 6958,
      "0A": 6959,
      "range": 6960,
      "ributes": 6961,
      "course": 6962,
      "x9d": 6963,
      "370": 6964,
      "_ip": 6965,
      "660": 6966,
      "().": 6967,
      "0x100": 6968,
      "498": 6969,
      ")))": 6970,
      "Oc": 6971,
      "IZ": 6972,
      "bt": 6973,
      "mantec": 6974,
      "Lic": 6975,
      "376": 6976,
      "weak": 6977,
      "vious": 6978,
      "nical": 6979,
      "_send": 6980,
      "BUG": 6981,
      "...\")": 6982,
      "exper": 6983,
      "Anti": 6984,
      "untrusted": 6985,
      "ah": 6986,
      "050": 6987,
      "Advan": 6988,
      "otes": 6989,
      "Build": 6990,
      "category": 6991,
      "verse": 6992,
      "mpeg": 6993,
      "ansf": 6994,
      "tober": 6995,
      "posts": 6996,
      "clean": 6997,
      "Wi": 6998,
      "045": 6999,
      "ERE": 7000,
      "SYSTEM": 7001,
      "xb7": 7002,
      "obtained": 7003,
      "243": 7004,
      "Vuln": 7005,
      "ints": 7006,
      "162": 7007,
      "kf": 7008,
      "hackerone": 7009,
      "ween": 7010,
      "233": 7011,
      "medium": 7012,
      "999": 7013,
      "queue": 7014,
      "utions": 7015,
      "301": 7016,
      "grad": 7017,
      "Pho": 7018,
      "human": 7019,
      "clear": 7020,
      "154": 7021,
      "xdd": 7022,
      "Panel": 7023,
      "trace": 7024,
      "cell": 7025,
      "Fin": 7026,
      "Failed": 7027,
      "201908": 7028,
      "ement": 7029,
      "traffic": 7030,
      "spreads": 7031,
      "Mode": 7032,
      "VirtualBox": 7033,
      "ship": 7034,
      "CESS": 7035,
      "Sie": 7036,
      "xb5": 7037,
      "251": 7038,
      "_se": 7039,
      "\"-": 7040,
      "zu": 7041,
      "0x31": 7042,
      "555": 7043,
      "Query": 7044,
      "render": 7045,
      "0x18": 7046,
      "drivers": 7047,
      "0x06": 7048,
      "termin": 7049,
      "VV": 7050,
      "Durch": 7051,
      "echanis": 7052,
      "initialize": 7053,
      "significantly": 7054,
      "mt": 7055,
      "modification": 7056,
      "SDM": 7057,
      "x9b": 7058,
      "junk": 7059,
      "Micro": 7060,
      "align": 7061,
      "pan": 7062,
      "ump": 7063,
      "Was": 7064,
      "CODE": 7065,
      "two": 7066,
      "0x42": 7067,
      "172": 7068,
      "istory": 7069,
      "generate": 7070,
      "Limit": 7071,
      "en_US": 7072,
      "comput": 7073,
      "650": 7074,
      "Cent": 7075,
      "export": 7076,
      "XXXX": 7077,
      "Token": 7078,
      "LIC": 7079,
      "zoo": 7080,
      "508": 7081,
      "symlink": 7082,
      "506": 7083,
      "ui": 7084,
      "Flash": 7085,
      "LINK": 7086,
      "uary": 7087,
      "Produ": 7088,
      "autom": 7089,
      "Wor": 7090,
      "_read": 7091,
      "invol": 7092,
      "V3": 7093,
      "REAM": 7094,
      "SP3": 7095,
      "inj": 7096,
      "user_": 7097,
      "proved": 7098,
      "163": 7099,
      ")-": 7100,
      "OT": 7101,
      "CU": 7102,
      "er_": 7103,
      "1010": 7104,
      "TLS": 7105,
      "Project": 7106,
      "Protocol": 7107,
      "470": 7108,
      "allocated": 7109,
      "Manipulation": 7110,
      "[<": 7111,
      "L3": 7112,
      "policy": 7113,
      "Status": 7114,
      "between": 7115,
      "protocols": 7116,
      "recomm": 7117,
      "Trans": 7118,
      "Untrusted": 7119,
      ".\"\\": 7120,
      "\"/>": 7121,
      "CD": 7122,
      "_report": 7123,
      "vulnerabilities_22": 7124,
      "0x24": 7125,
      "440": 7126,
      "erialization": 7127,
      "xb2": 7128,
      "License": 7129,
      "yk": 7130,
      "mood": 7131,
      "malloc": 7132,
      "SQLi": 7133,
      "CM": 7134,
      "0x11": 7135,
      "passed": 7136,
      "]\\": 7137,
      "icates": 7138,
      "POC": 7139,
      "series": 7140,
      "starting": 7141,
      "CheckCode": 7142,
      "calls": 7143,
      "wait": 7144,
      "9b": 7145,
      "Easy": 7146,
      "installation": 7147,
      "counts": 7148,
      "Driver": 7149,
      "jet": 7150,
      "{'": 7151,
      "0007": 7152,
      "321": 7153,
      "special": 7154,
      "Cache": 7155,
      "ni": 7156,
      "entity": 7157,
      "r1": 7158,
      "ana": 7159,
      "0x60": 7160,
      "button": 7161,
      "\"\"\"": 7162,
      "Edge": 7163,
      "Py": 7164,
      "documentation": 7165,
      "Library": 7166,
      "done": 7167,
      "151": 7168,
      "441": 7169,
      "Fail": 7170,
      "elementor": 7171,
      "():": 7172,
      "PeopleSoft": 7173,
      "vim": 7174,
      "ipe": 7175,
      "++;": 7176,
      "gzip": 7177,
      "VPN": 7178,
      "FOR": 7179,
      "photo": 7180,
      "NX": 7181,
      "0x0D": 7182,
      "343": 7183,
      "andard": 7184,
      "bits": 7185,
      "}\"": 7186,
      "(\"/": 7187,
      "Filter": 7188,
      "machine": 7189,
      "341": 7190,
      "ember": 7191,
      "059": 7192,
      "656": 7193,
      "queries": 7194,
      "perror": 7195,
      "ecko": 7196,
      "acted": 7197,
      "keys": 7198,
      "7b": 7199,
      "GR": 7200,
      "STA": 7201,
      "console": 7202,
      "1023": 7203,
      "\"#{": 7204,
      "696": 7205,
      "_M": 7206,
      "omp": 7207,
      "Pages": 7208,
      "eing": 7209,
      "unix": 7210,
      "documents": 7211,
      "(\"#{": 7212,
      "Blog": 7213,
      "moodle": 7214,
      "JE": 7215,
      "characters": 7216,
      "537": 7217,
      "380": 7218,
      "ffffffffffffffff": 7219,
      "789": 7220,
      "1014": 7221,
      "294": 7222,
      "0x28": 7223,
      "YK": 7224,
      "fixes": 7225,
      "gers": 7226,
      "uster": 7227,
      "Sending": 7228,
      "Cat": 7229,
      "QU": 7230,
      "logic": 7231,
      "listen": 7232,
      "uft": 7233,
      "274": 7234,
      "nops": 7235,
      "vig": 7236,
      "Router": 7237,
      "ky": 7238,
      "Tim": 7239,
      "770": 7240,
      "freed": 7241,
      "057": 7242,
      "serial": 7243,
      "Setting": 7244,
      "_type": 7245,
      "potential": 7246,
      "April": 7247,
      "written": 7248,
      "ffffff": 7249,
      "IOT": 7250,
      "067": 7251,
      "occurs": 7252,
      "called": 7253,
      "partial": 7254,
      "ries": 7255,
      "viewvc": 7256,
      ",,,": 7257,
      "easy": 7258,
      "IL": 7259,
      "Nov": 7260,
      "513": 7261,
      "Ether": 7262,
      "ARCH": 7263,
      "Safe": 7264,
      "9a": 7265,
      "Safari": 7266,
      "success": 7267,
      "234": 7268,
      "658": 7269,
      "llib": 7270,
      "Fusion": 7271,
      "056": 7272,
      "asm": 7273,
      "fault": 7274,
      "width": 7275,
      "spreadsheets": 7276,
      "152": 7277,
      "':'": 7278,
      "_STREAM": 7279,
      "5a": 7280,
      "-%": 7281,
      "rand_text_alpha": 7282,
      "ving": 7283,
      "estuft": 7284,
      "eingestuft": 7285,
      "Gecko": 7286,
      "DDDDDDDD": 7287,
      "PL": 7288,
      "nb": 7289,
      "142": 7290,
      "Bro": 7291,
      "ento": 7292,
      "LOG": 7293,
      "AIL": 7294,
      "eve": 7295,
      "further": 7296,
      "Storage": 7297,
      "DU": 7298,
      "msg00004": 7299,
      "IX": 7300,
      "------------------------------------------------------------------------": 7301,
      "rad": 7302,
      "1020": 7303,
      "***": 7304,
      "sync": 7305,
      "Networks": 7306,
      "arm": 7307,
      "=(": 7308,
      "SOCK_STREAM": 7309,
      "trick": 7310,
      "calc": 7311,
      "\"[": 7312,
      "8d": 7313,
      "chunk": 7314,
      "SERVER": 7315,
      "Sur": 7316,
      "ground": 7317,
      "still": 7318,
      "forti": 7319,
      "757": 7320,
      "-->": 7321,
      "rg": 7322,
      "enance": 7323,
      "urllib": 7324,
      "samsungmobile": 7325,
      "Notice": 7326,
      "associ": 7327,
      "4P": 7328,
      "191": 7329,
      "587": 7330,
      "BO": 7331,
      "aur": 7332,
      "sco": 7333,
      "0012": 7334,
      "777": 7335,
      "risk": 7336,
      "9d": 7337,
      "Desktop": 7338,
      "035": 7339,
      "042": 7340,
      "x_": 7341,
      "Interface": 7342,
      "{}": 7343,
      "PT": 7344,
      "0x53": 7345,
      "Cy": 7346,
      "openssl": 7347,
      "9c": 7348,
      "Smart": 7349,
      "Pers": 7350,
      "8f": 7351,
      "elev": 7352,
      "_with": 7353,
      "improved": 7354,
      "0x07": 7355,
      "boundary": 7356,
      "Cart": 7357,
      "ression": 7358,
      "review": 7359,
      "ool": 7360,
      "reference": 7361,
      "_payload": 7362,
      "ices": 7363,
      "996": 7364,
      "scri": 7365,
      "puts": 7366,
      "wjw": 7367,
      "underbird": 7368,
      "775": 7369,
      "Board": 7370,
      "Advanced": 7371,
      "Options": 7372,
      "mechanis": 7373,
      "_x86": 7374,
      "Example": 7375,
      "xbd": 7376,
      "ributor": 7377,
      "390": 7378,
      "0x54": 7379,
      "LRI": 7380,
      "1t5": 7381,
      "jRF": 7382,
      "1033": 7383,
      "0r4": 7384,
      "ums": 7385,
      "Photo": 7386,
      "cent": 7387,
      "nd": 7388,
      "Referer": 7389,
      "discus": 7390,
      "3Fo": 7391,
      "Gener": 7392,
      "Syun": 7393,
      "expo": 7394,
      "b2w0": 7395,
      "82Syun": 7396,
      "AMjRF": 7397,
      "ALVJ": 7398,
      "c7AMjRF": 7399,
      "GPc7AMjRF": 7400,
      "zi3Fo": 7401,
      "GXwjw": 7402,
      "kfGPc7AMjRF": 7403,
      "LRIkfGPc7AMjRF": 7404,
      "1t5GXwjw": 7405,
      "b2w0zi3Fo": 7406,
      "82SyunALVJ": 7407,
      "LRIkfGPc7AMjRF0r4": 7408,
      "1t5GXwjw82SyunALVJ": 7409,
      "b2w0zi3FoLRIkfGPc7AMjRF0r4": 7410,
      "1t5GXwjw82SyunALVJb2w0zi3FoLRIkfGPc7AMjRF0r4": 7411,
      "8a": 7412,
      "r2": 7413,
      "ansfer": 7414,
      "182": 7415,
      "vulnerabilities_20": 7416,
      "Print": 7417,
      "i_": 7418,
      "vp": 7419,
      "aaaaaaaaaaaaaaaaaaaaaaaaaaaaaaaaaaaaaaaaaaaaaaaaaaaaaaaaaaaaaaaa": 7420,
      "googlech": 7421,
      "jmp": 7422,
      "sid": 7423,
      "CVEs": 7424,
      "msg00006": 7425,
      "________________________________": 7426,
      "hex": 7427,
      "anger": 7428,
      "Appliance": 7429,
      "vulnerabilities_13": 7430,
      "FE": 7431,
      "Fort": 7432,
      "1013": 7433,
      "appro": 7434,
      "Store": 7435,
      "base64": 7436,
      "chat": 7437,
      "Failure": 7438,
      "20070": 7439,
      "444": 7440,
      "Drupal": 7441,
      "Gre": 7442,
      "ystem": 7443,
      "ves": 7444,
      "_POST": 7445,
      "Flow": 7446,
      "ype": 7447,
      "creation": 7448,
      "mine": 7449,
      "3Cissues": 7450,
      "coll": 7451,
      "046": 7452,
      "]:": 7453,
      "mbed": 7454,
      "Peer": 7455,
      "c017": 7456,
      "decode": 7457,
      "branch": 7458,
      "attr": 7459,
      "sandbox": 7460,
      "_len": 7461,
      "Notes": 7462,
      "ually": 7463,
      "here": 7464,
      "ped": 7465,
      "EL": 7466,
      "659": 7467,
      "fortiguard": 7468,
      "(/": 7469,
      "romereleases": 7470,
      "googlechromereleases": 7471,
      "0e": 7472,
      "contin": 7473,
      "topt": 7474,
      "R001": 7475,
      "055": 7476,
      "Mit": 7477,
      "qemu": 7478,
      "cyber": 7479,
      "ebp": 7480,
      "previous": 7481,
      "013": 7482,
      "deflate": 7483,
      "Tem": 7484,
      "itter": 7485,
      "Avail": 7486,
      "Pres": 7487,
      "Blue": 7488,
      "ones": 7489,
      "281": 7490,
      "0x0C": 7491,
      "3Ccommits": 7492,
      "lan": 7493,
      "bugreport": 7494,
      "697": 7495,
      "Bet": 7496,
      "20210": 7497,
      "month": 7498,
      "303": 7499,
      "subset": 7500,
      "411": 7501,
      "electr": 7502,
      "Juicy": 7503,
      "Addr": 7504,
      "irc": 7505,
      "blue": 7506,
      "note": 7507,
      "MB": 7508,
      "aud": 7509,
      "242": 7510,
      "261": 7511,
      "protected": 7512,
      "ead": 7513,
      "lass": 7514,
      "smsb": 7515,
      "unless": 7516,
      "2B": 7517,
      "panel": 7518,
      "0x33": 7519,
      "avaya": 7520,
      "pwn": 7521,
      "dam": 7522,
      "plac": 7523,
      "..%": 7524,
      ")\",,,,": 7525,
      "410": 7526,
      "ustom": 7527,
      "f_": 7528,
      "173": 7529,
      "................": 7530,
      "ness": 7531,
      "eline": 7532,
      "ruary": 7533,
      "Hard": 7534,
      "750": 7535,
      "triggers": 7536,
      "Header": 7537,
      "woocommerce": 7538,
      "20210330": 7539,
      "KB": 7540,
      "ends": 7541,
      "V500": 7542,
      "vem": 7543,
      "ENT": 7544,
      "_R": 7545,
      "capability": 7546,
      "smart": 7547,
      "cm": 7548,
      "file_": 7549,
      "PATH": 7550,
      "None": 7551,
      "respond": 7552,
      "171": 7553,
      "Issue": 7554,
      "Products": 7555,
      "track": 7556,
      "=)": 7557,
      "setup": 7558,
      "mq": 7559,
      "Handle": 7560,
      "Parameter": 7561,
      "problematic": 7562,
      "Backup": 7563,
      "HH": 7564,
      "588": 7565,
      "screen": 7566,
      "received": 7567,
      "seh": 7568,
      "registr": 7569,
      "JC": 7570,
      "ledge": 7571,
      "_log": 7572,
      "msf": 7573,
      "sysc": 7574,
      "Common": 7575,
      "consumption": 7576,
      "CRM": 7577,
      "_for": 7578,
      "8c": 7579,
      "443": 7580,
      "6a": 7581,
      "FL": 7582,
      "512": 7583,
      "ERROR": 7584,
      ".'": 7585,
      "bus": 7586,
      "phys": 7587,
      "blind": 7588,
      "\"]": 7589,
      "OB": 7590,
      "g9": 7591,
      "persistent": 7592,
      "_g": 7593,
      "calendar": 7594,
      "rar": 7595,
      "crypto": 7596,
      "light": 7597,
      "once": 7598,
      "big": 7599,
      "accesses": 7600,
      "dk": 7601,
      "Attacker": 7602,
      "environment": 7603,
      "0x38": 7604,
      "079": 7605,
      "porate": 7606,
      "F5": 7607,
      "065": 7608,
      "prefix": 7609,
      "263": 7610,
      "boo": 7611,
      "ience": 7612,
      "LP": 7613,
      "Table": 7614,
      "vert": 7615,
      "Format": 7616,
      "AY": 7617,
      "Dig": 7618,
      "LN": 7619,
      "rw": 7620,
      "ven": 7621,
      "Unauthorized": 7622,
      "Pointer": 7623,
      "modified": 7624,
      "Technology": 7625,
      "css": 7626,
      "aged": 7627,
      "January": 7628,
      "Nu": 7629,
      "'''": 7630,
      "addresses": 7631,
      "Custom": 7632,
      "many": 7633,
      "juni": 7634,
      "vember": 7635,
      "ii": 7636,
      "rodu": 7637,
      "0x67": 7638,
      "cgit": 7639,
      "LOAD": 7640,
      "juniper": 7641,
      "href": 7642,
      "gs": 7643,
      "AUT": 7644,
      "SDK": 7645,
      "7d": 7646,
      "OW": 7647,
      "star": 7648,
      "hot": 7649,
      "Console": 7650,
      "586": 7651,
      "security_advisory": 7652,
      "_pro": 7653,
      "causes": 7654,
      "bab": 7655,
      "octl": 7656,
      "phone": 7657,
      "repeat": 7658,
      "490": 7659,
      "msg00005": 7660,
      "_H": 7661,
      "ications": 7662,
      "Cam": 7663,
      "202208": 7664,
      "anti": 7665,
      "ADD": 7666,
      "098": 7667,
      "Routers": 7668,
      "PASS": 7669,
      "izer": 7670,
      "existing": 7671,
      "mR": 7672,
      "syscall": 7673,
      "alt": 7674,
      "698": 7675,
      "aid": 7676,
      "deploy": 7677,
      "builder": 7678,
      "Line": 7679,
      "gmail": 7680,
      "role": 7681,
      "Forum": 7682,
      "attributes": 7683,
      "054": 7684,
      "R1": 7685,
      "accounts": 7686,
      "atoi": 7687,
      "_key": 7688,
      "480": 7689,
      "From": 7690,
      "SIP": 7691,
      "repon": 7692,
      "Any": 7693,
      "+)": 7694,
      "devel": 7695,
      "latest": 7696,
      "defined": 7697,
      "retrieve": 7698,
      "384": 7699,
      "don": 7700,
      "4d415": 7701,
      "performing": 7702,
      "\"))": 7703,
      "20System": 7704,
      "053": 7705,
      "231": 7706,
      "gnu": 7707,
      "Sphere": 7708,
      "tt": 7709,
      "associated": 7710,
      "ili": 7711,
      "ency": 7712,
      "Gold": 7713,
      "feed": 7714,
      "Logic": 7715,
      "certificates": 7716,
      "race": 7717,
      "SK": 7718,
      "Var": 7719,
      "window": 7720,
      "181": 7721,
      "759": 7722,
      "solution": 7723,
      "WHERE": 7724,
      "Action": 7725,
      "reponame": 7726,
      "Ste": 7727,
      "Init": 7728,
      "tember": 7729,
      "Updat": 7730,
      "ioctl": 7731,
      "wik": 7732,
      "Shellcode": 7733,
      "Policy": 7734,
      "acy": 7735,
      "668": 7736,
      "GN": 7737,
      "uch": 7738,
      "MOV": 7739,
      "Analy": 7740,
      "ashboard": 7741,
      "Quick": 7742,
      "utils": 7743,
      "overflows": 7744,
      "ines": 7745,
      "exception": 7746,
      "036": 7747,
      "460": 7748,
      "parts": 7749,
      "Targets": 7750,
      "0x6D": 7751,
      "articles": 7752,
      "what": 7753,
      "AJ": 7754,
      "Unknown": 7755,
      "422": 7756,
      "hr": 7757,
      "confirm": 7758,
      "maint": 7759,
      "sprintf": 7760,
      "Big": 7761,
      "RS": 7762,
      "Manage": 7763,
      "FP": 7764,
      "strip": 7765,
      "Proxy": 7766,
      "797": 7767,
      "answer": 7768,
      "756": 7769,
      "k_": 7770,
      "drop": 7771,
      "NV": 7772,
      "manipul": 7773,
      "Unified": 7774,
      "028": 7775,
      "1_": 7776,
      "0x78": 7777,
      "800": 7778,
      "dl": 7779,
      "snyk": 7780,
      "273": 7781,
      "291": 7782,
      "Solution": 7783,
      "rss": 7784,
      "magic": 7785,
      "initialized": 7786,
      "JT": 7787,
      "c0170100": 7788,
      "+%": 7789,
      "066": 7790,
      "ric": 7791,
      "vector": 7792,
      "outs": 7793,
      "686": 7794,
      "vista": 7795,
      "administrators": 7796,
      "(@": 7797,
      "tempor": 7798,
      "ZZ": 7799,
      "Space": 7800,
      "Bad": 7801,
      "052": 7802,
      "plus": 7803,
      "older": 7804,
      "components": 7805,
      "````": 7806,
      "ryp": 7807,
      "reach": 7808,
      "checking": 7809,
      "my_": 7810,
      "h20566": 7811,
      "Availability": 7812,
      "xor": 7813,
      "However": 7814,
      "707": 7815,
      "mes": 7816,
      "imate": 7817,
      "gre": 7818,
      "October": 7819,
      "PP": 7820,
      "V4": 7821,
      "htons": 7822,
      "AGE": 7823,
      "amd": 7824,
      "068": 7825,
      "_n": 7826,
      "ifr": 7827,
      "\",$": 7828,
      "Consu": 7829,
      "caused": 7830,
      "virtual": 7831,
      "ASP": 7832,
      "Br": 7833,
      "plic": 7834,
      "089": 7835,
      "())": 7836,
      "Value": 7837,
      "099": 7838,
      "triggered": 7839,
      "FU": 7840,
      "Detail": 7841,
      "WIN": 7842,
      "680": 7843,
      "EXIT": 7844,
      "fs_": 7845,
      "598": 7846,
      "ESX": 7847,
      "Sel": 7848,
      "zy": 7849,
      "mount": 7850,
      "door": 7851,
      "20060": 7852,
      "Comple": 7853,
      "c05": 7854,
      "685": 7855,
      "Function": 7856,
      "Scan": 7857,
      "eno": 7858,
      "LEN": 7859,
      "2A": 7860,
      ".*": 7861,
      "==-": 7862,
      "ITE": 7863,
      "GT": 7864,
      "span": 7865,
      "Offset": 7866,
      "_2": 7867,
      "331": 7868,
      "urlencoded": 7869,
      "/#/": 7870,
      "'),": 7871,
      "anced": 7872,
      "344": 7873,
      "links": 7874,
      "ENSE": 7875,
      "Bit": 7876,
      "cart": 7877,
      "mary": 7878,
      "PC9": 7879,
      "abb": 7880,
      "unbekann": 7881,
      "netgear": 7882,
      "420": 7883,
      "Applications": 7884,
      "4d415a0": 7885,
      "MC": 7886,
      "060": 7887,
      "SSRF": 7888,
      "fuzz": 7889,
      "069": 7890,
      "MX": 7891,
      "anet": 7892,
      "extract": 7893,
      "various": 7894,
      "051": 7895,
      "670": 7896,
      "1011": 7897,
      "785": 7898,
      "Systems": 7899,
      "\\\\\\\\": 7900,
      "foo": 7901,
      "061": 7902,
      "Brow": 7903,
      "Wireless": 7904,
      "apply": 7905,
      "_____": 7906,
      "desk": 7907,
      "send_request_": 7908,
      "\"*": 7909,
      "frequ": 7910,
      "is_": 7911,
      "201701": 7912,
      "fail_with": 7913,
      "Switch": 7914,
      "7e": 7915,
      "ZGV": 7916,
      "_page": 7917,
      "{})": 7918,
      "struc": 7919,
      "executable": 7920,
      "GitLab": 7921,
      "Sign": 7922,
      "WAR": 7923,
      "ences": 7924,
      "589": 7925,
      "tooth": 7926,
      "join": 7927,
      "Si": 7928,
      "0x15": 7929,
      "Username": 7930,
      "Using": 7931,
      "0xA0": 7932,
      "directly": 7933,
      "Tested": 7934,
      "029": 7935,
      "HO": 7936,
      "464": 7937,
      "Unrestricted": 7938,
      "7C": 7939,
      "Jo": 7940,
      "March": 7941,
      "kas": 7942,
      "Insufficient": 7943,
      "667": 7944,
      "banner": 7945,
      "Can": 7946,
      "tab": 7947,
      "262": 7948,
      "replace": 7949,
      "instance": 7950,
      "atures": 7951,
      "078": 7952,
      "559": 7953,
      "send_request_cgi": 7954,
      "External": 7955,
      "counter": 7956,
      "phpmy": 7957,
      "RD": 7958,
      "handled": 7959,
      "/.": 7960,
      "ov": 7961,
      "ACK": 7962,
      "sv": 7963,
      "SCRIP": 7964,
      "Nt": 7965,
      "FT": 7966,
      "giv": 7967,
      "extensions": 7968,
      "JSA": 7969,
      "271": 7970,
      "disabled": 7971,
      "COR": 7972,
      "1022": 7973,
      "nop": 7974,
      "997": 7975,
      "monitor": 7976,
      "hu": 7977,
      "writing": 7978,
      "apid": 7979,
      "Thread": 7980,
      "_v": 7981,
      "uig": 7982,
      "796": 7983,
      "433": 7984,
      "uploaded": 7985,
      "csp": 7986,
      "fact": 7987,
      "917": 7988,
      "ape": 7989,
      "HT211": 7990,
      "Next": 7991,
      "attribute": 7992,
      "encrypted": 7993,
      "556": 7994,
      "shortcode": 7995,
      "ino": 7996,
      "Public": 7997,
      "pay": 7998,
      "'])": 7999,
      "064": 8000,
      "iPad": 8001,
      "adb": 8002,
      "second": 8003,
      "AU": 8004,
      "remove": 8005,
      "333": 8006,
      "0x22": 8007,
      "031": 8008,
      "597": 8009,
      ";&#": 8010,
      "0x5f": 8011,
      "included": 8012,
      "Critical": 8013,
      "\u0001\u0001": 8014,
      "quo": 8015,
      "viewer": 8016,
      "append": 8017,
      "creating": 8018,
      "dlink": 8019,
      "packages": 8020,
      "oid": 8021,
      "xxxxxxxxxxxxxxxxxxxxxxxxxxxxxxxxxxxxxxxxxxxxxxxxxxxxxxxxxxxxxxxx": 8022,
      "poll": 8023,
      ":[": 8024,
      "addons": 8025,
      "({": 8026,
      "034": 8027,
      "695": 8028,
      "Multi": 8029,
      "assets": 8030,
      "095": 8031,
      "CHAN": 8032,
      "F9": 8033,
      "MIT": 8034,
      "redir": 8035,
      "FX": 8036,
      "ek": 8037,
      "iT": 8038,
      "689": 8039,
      "objectID": 8040,
      "corporate": 8041,
      "flags": 8042,
      "Chat": 8043,
      "advis": 8044,
      "088": 8045,
      "Blind": 8046,
      "hor": 8047,
      "prox": 8048,
      "AndroidVersions": 8049,
      "shared": 8050,
      "Other": 8051,
      ")</": 8052,
      "D48": 8053,
      "VAL": 8054,
      "angerous": 8055,
      "za": 8056,
      "(\"[-]": 8057,
      "pool": 8058,
      "096": 8059,
      "20190": 8060,
      "985": 8061,
      "END": 8062,
      "Thunderbird": 8063,
      "conditions": 8064,
      "Pjx": 8065,
      "seg": 8066,
      "February": 8067,
      "mechanism": 8068,
      "Based": 8069,
      "AZ": 8070,
      "bsd": 8071,
      "0x36": 8072,
      "372": 8073,
      "=\"\"": 8074,
      "ples": 8075,
      "SMB": 8076,
      "pg": 8077,
      "reprodu": 8078,
      "macht": 8079,
      "gemacht": 8080,
      "TechSupport": 8081,
      "GNU": 8082,
      "Mal": 8083,
      "995": 8084,
      "471": 8085,
      "ausgemacht": 8086,
      "h20000": 8087,
      "Website": 8088,
      "Node": 8089,
      "Attack": 8090,
      "bizsupport": 8091,
      "(*": 8092,
      "Orig": 8093,
      "Ut": 8094,
      "========================": 8095,
      "Graph": 8096,
      "gno": 8097,
      "282": 8098,
      "virus": 8099,
      "lay": 8100,
      "upt": 8101,
      "795": 8102,
      "sin_addr": 8103,
      "0x13": 8104,
      "Include": 8105,
      "recommended": 8106,
      "Tele": 8107,
      "044": 8108,
      "warning": 8109,
      "1032": 8110,
      "A0": 8111,
      "desc": 8112,
      "Plus": 8113,
      "jar": 8114,
      "shift": 8115,
      "Side": 8116,
      "Ent": 8117,
      "SCRIPT": 8118,
      "wan": 8119,
      "discourse": 8120,
      "(\"%": 8121,
      "proto": 8122,
      "maliciously": 8123,
      "December": 8124,
      "Install": 8125,
      "plain": 8126,
      "283": 8127,
      "escalate": 8128,
      "frequently": 8129,
      "0x79": 8130,
      "thus": 8131,
      "FB": 8132,
      "HEAD": 8133,
      "Record": 8134,
      "Proto": 8135,
      "Dele": 8136,
      "fill": 8137,
      "293": 8138,
      "whenever": 8139,
      "LONG": 8140,
      "MY": 8141,
      "keep": 8142,
      "several": 8143,
      "uigi": 8144,
      "2E": 8145,
      "update_info": 8146,
      "SNYK": 8147,
      "Ij48": 8148,
      "proc": 8149,
      "Calendar": 8150,
      "WD": 8151,
      "lik": 8152,
      "NC": 8153,
      "493": 8154,
      "PI": 8155,
      "669": 8156,
      "zookeeper": 8157,
      "0x23": 8158,
      "abei": 8159,
      "disclose": 8160,
      "November": 8161,
      "Tool": 8162,
      "~.": 8163,
      "sockaddr_in": 8164,
      "hit": 8165,
      "687": 8166,
      "016": 8167,
      "676": 8168,
      ".,": 8169,
      "0x35": 8170,
      "desktop_": 8171,
      "unique": 8172,
      "\"../../../../": 8173,
      "XE": 8174,
      "sg": 8175,
      "Builder": 8176,
      "broken": 8177,
      "Pjx2": 8178,
      "located": 8179,
      "respons": 8180,
      "hpes": 8181,
      "PC92": 8182,
      "Live": 8183,
      "PID": 8184,
      "buil": 8185,
      "contributor": 8186,
      "admin_": 8187,
      "uploads": 8188,
      "mediate": 8189,
      "rial": 8190,
      "update_": 8191,
      "DisclosureDate": 8192,
      "gB": 8193,
      "menu": 8194,
      "SPC": 8195,
      "353": 8196,
      "0x0A": 8197,
      "32366": 8198,
      "576": 8199,
      "leveraging": 8200,
      "JR": 8201,
      "Origin": 8202,
      "1006": 8203,
      "043": 8204,
      "launched": 8205,
      "Full": 8206,
      "Woo": 8207,
      "IGlu": 8208,
      "Ij48Ynl0ZT": 8209,
      "ANCE": 8210,
      "Alert": 8211,
      "Processing": 8212,
      "altervista": 8213,
      "LICENSE": 8214,
      "0x12": 8215,
      "IGluZGV": 8216,
      "b2lkPjx2": 8217,
      "b2lkIGluZGV": 8218,
      "L2J5dGU": 8219,
      "4PSI": 8220,
      "PC92b2lkPjx2": 8221,
      "b2lkIGluZGV4PSI": 8222,
      "PC92b2lkPjx2b2lkIGluZGV4PSI": 8223,
      "=[": 8224,
      "ypto": 8225,
      "usb": 8226,
      "202105": 8227,
      ",(": 8228,
      "0x52": 8229,
      "Manipul": 8230,
      "colum": 8231,
      "live": 8232,
      "776": 8233,
      "Publish": 8234,
      "xhtml": 8235,
      "0x49": 8236,
      "0x56": 8237,
      "saf": 8238,
      "developer": 8239,
      "_init": 8240,
      "forums": 8241,
      "params": 8242,
      "types": 8243,
      "targets": 8244,
      ":%": 8245,
      "clients": 8246,
      "Configuration": 8247,
      "cves": 8248,
      "June": 8249,
      "077": 8250,
      "vulns": 8251,
      "repeatable": 8252,
      "557": 8253,
      "QUE": 8254,
      "atisch": 8255,
      "mitig": 8256,
      "problematisch": 8257,
      "mware": 8258,
      "front": 8259,
      "good": 8260,
      "Jet": 8261,
      "notifications": 8262,
      "514": 8263,
      "_string": 8264,
      "081": 8265,
      "Act": 8266,
      "accept": 8267,
      "quick": 8268,
      "Close": 8269,
      "`.": 8270,
      "647": 8271,
      "778": 8272,
      "elements": 8273,
      "cac": 8274,
      "SSA": 8275,
      "rpath": 8276,
      "SCAL": 8277,
      "lassian": 8278,
      "executes": 8279,
      "9e": 8280,
      "prog": 8281,
      "Vir": 8282,
      "webserver": 8283,
      "Bulletin": 8284,
      "September": 8285,
      "TAR": 8286,
      "tar": 8287,
      "_un": 8288,
      "0x59": 8289,
      "both": 8290,
      "kZX": 8291,
      "secur": 8292,
      "354": 8293,
      "20230": 8294,
      "Editor": 8295,
      "_Xm": 8296,
      "032": 8297,
      "ista": 8298,
      "SCALANCE": 8299,
      "nic": 8300,
      "tenable": 8301,
      "AAAAB": 8302,
      "points": 8303,
      "0x5F": 8304,
      "202106": 8305,
      "Fe": 8306,
      "rl": 8307,
      "ticket": 8308,
      "0x19": 8309,
      "causing": 8310,
      "0x34": 8311,
      "DH": 8312,
      "_LICENSE": 8313,
      "roff": 8314,
      "eting": 8315,
      "Runtime": 8316,
      "GH": 8317,
      "px": 8318,
      "(!$": 8319,
      "D0i": 8320,
      "ster": 8321,
      "cannot": 8322,
      "017": 8323,
      "WL": 8324,
      "ÿ": 8325,
      "erfol": 8326,
      "00007": 8327,
      "WI": 8328,
      "itrix": 8329,
      "sen": 8330,
      "ying": 8331,
      "(\\": 8332,
      "erfolgen": 8333,
      "CMD": 8334,
      "PTR": 8335,
      "Ge": 8336,
      "logging": 8337,
      "filesystem": 8338,
      "cmp": 8339,
      "Ranking": 8340,
      "Basic": 8341,
      "Qk": 8342,
      "ina": 8343,
      "ributed": 8344,
      "FC": 8345,
      "arguments": 8346,
      "Ul": 8347,
      "IoT": 8348,
      "cast": 8349,
      "lite": 8350,
      "VE": 8351,
      "0041": 8352,
      "frm": 8353,
      "pbmR": 8354,
      "ja": 8355,
      "~.~.": 8356,
      "templates": 8357,
      "begin": 8358,
      "rPSA": 8359,
      "DefaultTarget": 8360,
      "272": 8361,
      "cla": 8362,
      "Serv": 8363,
      "Number": 8364,
      "verification": 8365,
      "TYPE": 8366,
      "encryption": 8367,
      "292": 8368,
      "wvdm9pZ": 8369,
      "pbmRle": 8370,
      "wvdm9pZD48": 8371,
      "CURL": 8372,
      "directories": 8373,
      "CBpbmRle": 8374,
      "dm9pZCBpbmRle": 8375,
      "ieXRlPjwvdm9pZD48": 8376,
      "PC9ieXRlPjwvdm9pZD48": 8377,
      ">\"": 8378,
      "iper": 8379,
      "dm9pZCBpbmRleD0i": 8380,
      "PGJ5dGU": 8381,
      "PC9ieXRlPjwvdm9pZD48dm9pZCBpbmRleD0i": 8382,
      "come": 8383,
      "opened": 8384,
      "sur": 8385,
      "362": 8386,
      "491": 8387,
      "GO": 8388,
      "0x76": 8389,
      "452": 8390,
      "790": 8391,
      "drive": 8392,
      "\"[*]": 8393,
      "Cur": 8394,
      "0009": 8395,
      "364": 8396,
      "V5": 8397,
      "1028": 8398,
      "Manipulieren": 8399,
      "ites": 8400,
      "ciac": 8401,
      "976": 8402,
      "fficult": 8403,
      "Portals": 8404,
      "([": 8405,
      "structure": 8406,
      "././././": 8407,
      "left": 8408,
      "ÿÿ": 8409,
      "gor": 8410,
      "OptString": 8411,
      "ither": 8412,
      "erv": 8413,
      "temporary": 8414,
      "Lev": 8415,
      "Pay": 8416,
      "MSF_LICENSE": 8417,
      "11111111111111111111111111111111": 8418,
      "c01701004d415a0": 8419,
      "Monitor": 8420,
      "inci": 8421,
      "world": 8422,
      "Restricted": 8423,
      "abc": 8424,
      "474": 8425,
      "494": 8426,
      "padding": 8427,
      "484": 8428,
      "MG": 8429,
      "ately": 8430,
      "UDP": 8431,
      "print_error": 8432,
      "_list": 8433,
      "deletion": 8434,
      "alys": 8435,
      "exposure": 8436,
      "datab": 8437,
      "havi": 8438,
      "(%": 8439,
      "_dir": 8440,
      "SEH": 8441,
      "ez": 8442,
      "Edit": 8443,
      "disk": 8444,
      "early": 8445,
      "062": 8446,
      "provides": 8447,
      "bash": 8448,
      "201903": 8449,
      "gef": 8450,
      "Nj": 8451,
      "585": 8452,
      "Exec": 8453,
      "ince": 8454,
      "351": 8455,
      "00000000000000000000000000000000000000000000000000000000000000000000000000000000000000000000000000000000000000000000000000000000": 8456,
      "374": 8457,
      "history": 8458,
      "000003000003000003000003": 8459,
      "\\/\\": 8460,
      "*/*": 8461,
      "tin": 8462,
      "889": 8463,
      "431": 8464,
      "JD": 8465,
      "VI": 8466,
      "_start": 8467,
      "dh": 8468,
      "Reference": 8469,
      "Junos": 8470,
      "ips": 8471,
      "}:": 8472,
      "'+": 8473,
      "L_": 8474,
      "****************************************************************": 8475,
      "rce": 8476,
      "hone": 8477,
      "373": 8478,
      "HPSB": 8479,
      ":*:*": 8480,
      "plode": 8481,
      "AAAAAAAAAAAAAAAAAAAAAAAAAAAAAAAAAAAAAAAAAAAAAAAAAAAAAAAAAAAAAAAAAAAAAAAAAAAAAAAAAAAAAAAAAAAAAAAAAAAAAAAAAAAAAAAAAAAAAAAAAAAAAAAAAAAAAAAAAAAAAAAAAAAAAAAAAAAAAAAAAAAAAAAAAAAAAAAAAAAAAAAAAAAAAAAAAAAAAAAAAAAAAAAAAAAAAAAAAAAAAAAAAAAAAAAAAAAAAAAAAAAAAAAAAAAAAAAA": 8482,
      "895": 8483,
      "FFFFFFFF": 8484,
      "087": 8485,
      "updated": 8486,
      "461": 8487,
      "telnet": 8488,
      "8e": 8489,
      "=/": 8490,
      "Hosp": 8491,
      "iframe": 8492,
      "Rel": 8493,
      "W5kZX": 8494,
      "453": 8495,
      "artext": 8496,
      "aurora": 8497,
      "393": 8498,
      "subcomponent": 8499,
      "Authenticated": 8500,
      "g9Ij": 8501,
      "MQ": 8502,
      "iPadOS": 8503,
      "ison": 8504,
      "lower": 8505,
      "48L3": 8506,
      "gitweb": 8507,
      "786": 8508,
      "0x2e": 8509,
      "R001C": 8510,
      "roffen": 8511,
      "Tensor": 8512,
      "sz": 8513,
      "storage": 8514,
      "Packet": 8515,
      "Discover": 8516,
      "Firmware": 8517,
      "README": 8518,
      "075": 8519,
      "initiated": 8520,
      "G_": 8521,
      "363": 8522,
      "000000000000": 8523,
      "tern": 8524,
      "394": 8525,
      "FD_": 8526,
      "sb": 8527,
      "subscri": 8528,
      "===============": 8529,
      "Tag": 8530,
      "July": 8531,
      "454": 8532,
      "SON": 8533,
      "Embed": 8534,
      "inv": 8535,
      "UTF": 8536,
      "W5kZXg9Ij": 8537,
      "a00": 8538,
      "wvYnl0ZT": 8539,
      "gaW5kZXg9Ij": 8540,
      "ZvaWQgaW5kZXg9Ij": 8541,
      "PHZvaWQgaW5kZXg9Ij": 8542,
      "48L3ZvaWQ": 8543,
      "wvYnl0ZT48L3ZvaWQ": 8544,
      "361": 8545,
      "tl": 8546,
      "074": 8547,
      "481": 8548,
      "RPC": 8549,
      "xr": 8550,
      "Prior": 8551,
      "PSV": 8552,
      "eq": 8553,
      "0xb": 8554,
      "adata": 8555,
      "50728": 8556,
      "tify": 8557,
      "samba": 8558,
      "aco": 8559,
      "'.$": 8560,
      "Help": 8561,
      "rights": 8562,
      "gy": 8563,
      "achie": 8564,
      "sequence": 8565,
      "oice": 8566,
      "Settings": 8567,
      "enterprise": 8568,
      "outside": 8569,
      "BZ": 8570,
      "endors": 8571,
      "880": 8572,
      "342": 8573,
      "Click": 8574,
      "v7": 8575,
      "foxit": 8576,
      "5e": 8577,
      "cing": 8578,
      "082": 8579,
      "finite": 8580,
      "C0": 8581,
      "('<": 8582,
      "5000": 8583,
      "Ou": 8584,
      "hh": 8585,
      "Export": 8586,
      "alysis": 8587,
      "Hat": 8588,
      "(\"-": 8589,
      "LWP": 8590,
      "20201": 8591,
      "provide": 8592,
      "beta": 8593,
      "Field": 8594,
      "gpac": 8595,
      "AAAAAA": 8596,
      "connections": 8597,
      "limited": 8598,
      "coming": 8599,
      "VIC": 8600,
      "WSA": 8601,
      "msg00007": 8602,
      "PER": 8603,
      "ros": 8604,
      "Max": 8605,
      "0x83": 8606,
      "appear": 8607,
      "signature": 8608,
      "add_argument": 8609,
      "'')": 8610,
      "bridge": 8611,
      "fession": 8612,
      "LDAP": 8613,
      "HOST": 8614,
      "JP": 8615,
      "ko": 8616,
      "OPT_": 8617,
      "_c": 8618,
      "}.": 8619,
      "<!": 8620,
      "Now": 8621,
      "swers": 8622,
      "attern": 8623,
      "contacted": 8624,
      "0x39": 8625,
      "since": 8626,
      "advised": 8627,
      "511": 8628,
      "CN": 8629,
      "334": 8630,
      "flo": 8631,
      "0x1C": 8632,
      "Nuke": 8633,
      "unexpected": 8634,
      "ART": 8635,
      "CGI": 8636,
      "PjxieXRlPj": 8637,
      "0x37": 8638,
      "Please": 8639,
      "logon": 8640,
      "Administrator": 8641,
      "rhost": 8642,
      "new_": 8643,
      "Locale": 8644,
      "entd": 8645,
      "pkt": 8646,
      "xp": 8647,
      "202003": 8648,
      "886": 8649,
      "018": 8650,
      "Find": 8651,
      "tu": 8652,
      "0023": 8653,
      "1012": 8654,
      "Python": 8655,
      "incibe": 8656,
      "TA10": 8657,
      "classes": 8658,
      "firewall": 8659,
      "set_": 8660,
      "516": 8661,
      "instead": 8662,
      "EP": 8663,
      "0x2D": 8664,
      "Del": 8665,
      "IY": 8666,
      "472": 8667,
      "20080": 8668,
      "596": 8669,
      "XXE": 8670,
      "Greetz": 8671,
      "comments": 8672,
      "Bank": 8673,
      "ety": 8674,
      "085": 8675,
      "pul": 8676,
      "gran": 8677,
      "'];": 8678,
      "202107": 8679,
      "(\"[*]": 8680,
      "Uncontrolled": 8681,
      "joomla": 8682,
      "onic": 8683,
      "securityUpdate": 8684,
      "area": 8685,
      "computer": 8686,
      "_request": 8687,
      "1008": 8688,
      "given": 8689,
      "383": 8690,
      "answers": 8691,
      "Cons": 8692,
      "0x57": 8693,
      "Firewall": 8694,
      "swg219": 8695,
      "While": 8696,
      "unden": 8697,
      "|\\": 8698,
      "Sl": 8699,
      "label": 8700,
      "But": 8701,
      "070": 8702,
      "492": 8703,
      "ZW": 8704,
      "bis": 8705,
      "0x17": 8706,
      "usic": 8707,
      "ESR": 8708,
      "Mj": 8709,
      "XT": 8710,
      "msg00008": 8711,
      "office": 8712,
      "_get_": 8713,
      "URE": 8714,
      "019": 8715,
      "504": 8716,
      "Sc": 8717,
      "testing": 8718,
      "..\\": 8719,
      "betriff": 8720,
      "betrifft": 8721,
      "union": 8722,
      "sockfd": 8723,
      "WEB": 8724,
      "0x71": 8725,
      "reverse": 8726,
      "eckt": 8727,
      "TOTO": 8728,
      "Mid": 8729,
      "086": 8730,
      "parent": 8731,
      "doesn": 8732,
      "hw": 8733,
      "20040": 8734,
      "023": 8735,
      ")',": 8736,
      "black": 8737,
      "¯¯": 8738,
      "ilar": 8739,
      "graphic": 8740,
      "August": 8741,
      "BR": 8742,
      "Dll": 8743,
      "zh": 8744,
      "Pathname": 8745,
      "namic": 8746,
      "VL": 8747,
      "plan": 8748,
      "463": 8749,
      "073": 8750,
      "_family": 8751,
      "tiff": 8752,
      "geht": 8753,
      "improperly": 8754,
      "P8": 8755,
      "Dell": 8756,
      "ances": 8757,
      "076": 8758,
      "nbsp": 8759,
      "Bounds": 8760,
      "1200": 8761,
      "entdeckt": 8762,
      "20140": 8763,
      "involving": 8764,
      "gefunden": 8765,
      "202305": 8766,
      "dword": 8767,
      "mi": 8768,
      "ceed": 8769,
      "063": 8770,
      "Az": 8771,
      "[[": 8772,
      "explode": 8773,
      "794": 8774,
      "\\\"\\": 8775,
      "Browser": 8776,
      "755": 8777,
      "]\"": 8778,
      "isset": 8779,
      "specify": 8780,
      "46464646": 8781,
      "HPSBMU": 8782,
      "Privileged": 8783,
      "restart": 8784,
      "Sk": 8785,
      "wise": 8786,
      "enum": 8787,
      "easier": 8788,
      "Viewer": 8789,
      "918": 8790,
      "0x21": 8791,
      "alo": 8792,
      "580": 8793,
      "scm": 8794,
      "ESI": 8795,
      "alk": 8796,
      "Be": 8797,
      "Eine": 8798,
      "══": 8799,
      "workarounds": 8800,
      "Limitation": 8801,
      "stop": 8802,
      "791": 8803,
      "4_": 8804,
      "atory": 8805,
      "missions": 8806,
      "corp": 8807,
      "/+/": 8808,
      "TARGET": 8809,
      "enc": 8810,
      "r1073": 8811,
      "Digital": 8812,
      "0_": 8813,
      "CLI": 8814,
      "AK": 8815,
      "Tokens": 8816,
      "fessional": 8817,
      "Last": 8818,
      "advanced": 8819,
      "sequences": 8820,
      "dependent": 8821,
      "Map": 8822,
      "SCO": 8823,
      "TensorFlow": 8824,
      "Mark": 8825,
      "twitter": 8826,
      "'$": 8827,
      "0x26": 8828,
      "986": 8829,
      "ULONG": 8830,
      "past": 8831,
      "Account": 8832,
      "reply": 8833,
      "property": 8834,
      "442": 8835,
      "0xA1": 8836,
      "20100101": 8837,
      "TT": 8838,
      "_CO": 8839,
      "spr": 8840,
      "473": 8841,
      "EMC": 8842,
      "fri": 8843,
      "780": 8844,
      "trend": 8845,
      "accessing": 8846,
      "charset": 8847,
      "CURLOPT_": 8848,
      "Save": 8849,
      "elevation": 8850,
      "iph": 8851,
      "alog": 8852,
      "1009": 8853,
      "School": 8854,
      "ESP": 8855,
      "backend": 8856,
      "adow": 8857,
      "tics": 8858,
      "```": 8859,
      "wind": 8860,
      "990": 8861,
      "AUTH": 8862,
      "hg": 8863,
      "deter": 8864,
      "cfg": 8865,
      "hpesb": 8866,
      "\"[-]": 8867,
      "898": 8868,
      "lot": 8869,
      "ared": 8870,
      "afee": 8871,
      "ECX": 8872,
      "isted": 8873,
      "Dy": 8874,
      "Labs": 8875,
      "either": 8876,
      "690": 8877,
      "LF": 8878,
      "insp": 8879,
      "863": 8880,
      "discuss": 8881,
      "eft": 8882,
      "apar": 8883,
      "7a": 8884,
      "RDP": 8885,
      "eric": 8886,
      "elf": 8887,
      "TA13": 8888,
      "]/": 8889,
      "MAX": 8890,
      "Excel": 8891,
      "~~~~~~~~~~~~~~~~~~~~~~~~~~~~~~~~": 8892,
      "KEY": 8893,
      "--------------------------------------------------------": 8894,
      "+-": 8895,
      "nonce": 8896,
      "dn": 8897,
      "apping": 8898,
      "STD": 8899,
      "nologies": 8900,
      "022": 8901,
      "OFF": 8902,
      "885": 8903,
      "Lite": 8904,
      "VB": 8905,
      "jpeg": 8906,
      "restrict": 8907,
      "release_id": 8908,
      "cg": 8909,
      "eip": 8910,
      "pwd": 8911,
      "ks": 8912,
      "Chan": 8913,
      "GGED": 8914,
      "Samsung": 8915,
      "8L2J5dGU": 8916,
      "physical": 8917,
      "754": 8918,
      "Priv": 8919,
      "@\\": 8920,
      "air": 8921,
      "753": 8922,
      "attempts": 8923,
      "Studio": 8924,
      "First": 8925,
      "ali": 8926,
      "unis": 8927,
      "897": 8928,
      "integr": 8929,
      "Electr": 8930,
      "mony": 8931,
      "curl_se": 8932,
      "0x81": 8933,
      "udent": 8934,
      "xpl": 8935,
      "887": 8936,
      "Protection": 8937,
      "0x16": 8938,
      "(\"[": 8939,
      "helper": 8940,
      "------------------------------------------------": 8941,
      "magick": 8942,
      "ADDR": 8943,
      "byname": 8944,
      "Fox": 8945,
      "Qual": 8946,
      "sort": 8947,
      "exus": 8948,
      "curl_setopt": 8949,
      "statement": 8950,
      ",&": 8951,
      "tok": 8952,
      "084": 8953,
      "Exten": 8954,
      "652": 8955,
      "NOP": 8956,
      "uble": 8957,
      "0x0B": 8958,
      "RUGGED": 8959,
      "RUGGEDCOM": 8960,
      "ume": 8961,
      "Condition": 8962,
      "0x3a": 8963,
      "happ": 8964,
      "thost": 8965,
      "encoding": 8966,
      "071": 8967,
      "mediatek": 8968,
      "451": 8969,
      "SW": 8970,
      "mad": 8971,
      "elmo": 8972,
      "751": 8973,
      "Juniper": 8974,
      "consumer": 8975,
      "original": 8976,
      "Tom": 8977,
      "leg": 8978,
      "subject": 8979,
      "_exec": 8980,
      "AW": 8981,
      "HT21": 8982,
      "Technical": 8983,
      "â": 8984,
      "TA07": 8985,
      "Integr": 8986,
      "pment": 8987,
      "PORT": 8988,
      "fff": 8989,
      "E1": 8990,
      "Komp": 8991,
      "Nz": 8992,
      "qn": 8993,
      "single": 8994,
      "0x4F": 8995,
      "knowledge": 8996,
      "g1": 8997,
      "decryp": 8998,
      "605": 8999,
      "Um": 9000,
      "iting": 9001,
      "chrome": 9002,
      "faq": 9003,
      "Discovered": 9004,
      "_write": 9005,
      "takeover": 9006,
      "kritische": 9007,
      "681": 9008,
      "Method": 9009,
      "Foundation": 9010,
      "GMT": 9011,
      "ffmpeg": 9012,
      "483": 9013,
      "docLocale": 9014,
      "spoofing": 9015,
      "LM": 9016,
      "cut": 9017,
      "rp": 9018,
      "optarg": 9019,
      ":(": 9020,
      "tri": 9021,
      "693": 9022,
      ">&": 9023,
      "GK": 9024,
      "roy": 9025,
      "ectiv": 9026,
      "worker": 9027,
      "Komponent": 9028,
      "JB": 9029,
      "TA08": 9030,
      "Komponente": 9031,
      "}/": 9032,
      ";}": 9033,
      "Window": 9034,
      "whe": 9035,
      "642": 9036,
      "publ": 9037,
      "dst": 9038,
      "Unauthenticated": 9039,
      "brute": 9040,
      "671": 9041,
      "EF": 9042,
      "097": 9043,
      "concat": 9044,
      "variables": 9045,
      "517": 9046,
      "Part": 9047,
      "cos": 9048,
      "pur": 9049,
      "Connecting": 9050,
      "_to_": 9051,
      "890": 9052,
      "tic": 9053,
      "992": 9054,
      "tvOS": 9055,
      "Inc": 9056,
      "Air": 9057,
      "sbin": 9058,
      "391": 9059,
      "Due": 9060,
      "gg": 9061,
      "made": 9062,
      "371": 9063,
      "fee": 9064,
      "ways": 9065,
      "DATA": 9066,
      "YW": 9067,
      "Created": 9068,
      ")%": 9069,
      "20130": 9070,
      "irq": 9071,
      "563": 9072,
      "ldap": 9073,
      "iw": 9074,
      "774": 9075,
      "020": 9076,
      "503": 9077,
      "vendors": 9078,
      "083": 9079,
      "docs2": 9080,
      "elmodocs2": 9081,
      "20110": 9082,
      "392": 9083,
      "Count": 9084,
      "generated": 9085,
      "mos": 9086,
      "482": 9087,
      "382": 9088,
      "Guest": 9089,
      "normalize": 9090,
      "opera": 9091,
      "Automation": 9092,
      "014": 9093,
      "802": 9094,
      "register_options": 9095,
      "agios": 9096,
      "528": 9097,
      "gid": 9098,
      "anc": 9099,
      "201603": 9100,
      "check_": 9101,
      "elsif": 9102,
      "in_": 9103,
      "2Ftrunk": 9104,
      "attachment": 9105,
      "c00": 9106,
      "filetype": 9107,
      "MATIC": 9108,
      "War": 9109,
      "752": 9110,
      "USB": 9111,
      "Registr": 9112,
      "mcafee": 9113,
      "vid": 9114,
      "release_": 9115,
      "202007": 9116,
      "compat": 9117,
      "x86_64": 9118,
      "Ext": 9119,
      "kbdoc": 9120,
      "Communications": 9121,
      "Attackers": 9122,
      "3000": 9123,
      "ny": 9124,
      "notices": 9125,
      "to_s": 9126,
      "IDs": 9127,
      "0x3D": 9128,
      "S2": 9129,
      "Xen": 9130,
      "072": 9131,
      "shownotes": 9132,
      "[]=": 9133,
      "617": 9134,
      "583": 9135,
      "502": 9136,
      "Labor": 9137,
      "UL": 9138,
      "Ub": 9139,
      "HT208": 9140,
      "frag": 9141,
      "Permission": 9142,
      "ustrial": 9143,
      "3F": 9144,
      "Root": 9145,
      "sil": 9146,
      "0x5c": 9147,
      "ln": 9148,
      "fg": 9149,
      "tested": 9150,
      "cach": 9151,
      "ral": 9152,
      "993": 9153,
      "Job": 9154,
      "behavi": 9155,
      "582": 9156,
      "inside": 9157,
      "similar": 9158,
      "${": 9159,
      "m3": 9160,
      "mil": 9161,
      "EDX": 9162,
      "987": 9163,
      "ational": 9164,
      "654": 9165,
      "connected": 9166,
      "final": 9167,
      "gnome": 9168,
      "1007": 9169,
      "Mk": 9170,
      "0x89": 9171,
      "phpmyadmin": 9172,
      "gorith": 9173,
      "616": 9174,
      "forg": 9175,
      "infrastructure": 9176,
      "hoo": 9177,
      "vulndb": 9178,
      "double": 9179,
      "WooCommerce": 9180,
      "erry": 9181,
      "members": 9182,
      "msg00010": 9183,
      "blocks": 9184,
      "needs": 9185,
      "nextcloud": 9186,
      "multipart": 9187,
      "bas": 9188,
      "bum": 9189,
      "Domain": 9190,
      "505": 9191,
      "social": 9192,
      "compress": 9193,
      "Actor": 9194,
      "ein": 9195,
      "692": 9196,
      "controls": 9197,
      "Zone": 9198,
      "v_": 9199,
      "0x29": 9200,
      "solutions": 9201,
      "WT": 9202,
      "20150": 9203,
      "SIMATIC": 9204,
      "ties": 9205,
      "'))": 9206,
      "Express": 9207,
      "glpi": 9208,
      "though": 9209,
      "Risk": 9210,
      "kt": 9211,
      "845": 9212,
      "lear": 9213,
      "QUEST": 9214,
      "_time": 9215,
      "Vista": 9216,
      "ques": 9217,
      "container": 9218,
      "model": 9219,
      "tcpdump": 9220,
      "518": 9221,
      "_cmd": 9222,
      "»]": 9223,
      "381": 9224,
      "INT": 9225,
      "lon": 9226,
      "wireless": 9227,
      "Notification": 9228,
      "EOF": 9229,
      "wave": 9230,
      "nodes": 9231,
      "eep": 9232,
      "Master": 9233,
      "vide": 9234,
      "loaded": 9235,
      "a_id": 9236,
      "674": 9237,
      "SNMP": 9238,
      "Entity": 9239,
      "015": 9240,
      "Crypto": 9241,
      "gethost": 9242,
      "mentation": 9243,
      "ination": 9244,
      "Trace": 9245,
      "solute": 9246,
      "those": 9247,
      "EtherTokens": 9248,
      "fake": 9249,
      "ura": 9250,
      "SEVD": 9251,
      "checked": 9252,
      "parse_": 9253,
      "letter": 9254,
      "kasan": 9255,
      "sin_port": 9256,
      "meta": 9257,
      "audio": 9258,
      "business": 9259,
      "Develo": 9260,
      "Handling": 9261,
      "0D": 9262,
      "462": 9263,
      "errors": 9264,
      "����": 9265,
      "BIOS": 9266,
      "694": 9267,
      "TA09": 9268,
      "wpvulndb": 9269,
      "permit": 9270,
      "_length": 9271,
      "stores": 9272,
      "'>": 9273,
      "WU": 9274,
      "hdr": 9275,
      "20141": 9276,
      "compare": 9277,
      "EBP": 9278,
      "continue": 9279,
      "Outs": 9280,
      "best": 9281,
      "yout": 9282,
      "VR": 9283,
      "wz": 9284,
      "USH": 9285,
      "dns": 9286,
      "Comment": 9287,
      "msg00017": 9288,
      "kc": 9289,
      "882": 9290,
      "F6": 9291,
      "unter": 9292,
      "entries": 9293,
      "772": 9294,
      "avoid": 9295,
      "grok": 9296,
      "595": 9297,
      "::::::::::::::::": 9298,
      "_header": 9299,
      "550": 9300,
      "processes": 9301,
      "672": 9302,
      "Item": 9303,
      "cx": 9304,
      "UNION": 9305,
      "DN": 9306,
      "routers": 9307,
      "Outside": 9308,
      "900": 9309,
      "091": 9310,
      "Output": 9311,
      "S_": 9312,
      "hub": 9313,
      "MDM9": 9314,
      "793": 9315,
      "atforms": 9316,
      "standard": 9317,
      "tak": 9318,
      "achi": 9319,
      "625": 9320,
      "station": 9321,
      "Deserialization": 9322,
      "ebook": 9323,
      "ACE": 9324,
      "Redirect": 9325,
      "electric": 9326,
      "normalize_uri": 9327,
      "calcul": 9328,
      "sq": 9329,
      "esource": 9330,
      "ami": 9331,
      "d_": 9332,
      "WebLogic": 9333,
      "==============": 9334,
      "Credentials": 9335,
      "elevated": 9336,
      "Lif": 9337,
      "sar": 9338,
      "611": 9339,
      "card": 9340,
      "Timeline": 9341,
      ";&": 9342,
      "Hack": 9343,
      "aintext": 9344,
      "hav": 9345,
      "Symantec": 9346,
      "BBBBBBBBBBBBBBBB": 9347,
      "F4": 9348,
      "Wid": 9349,
      "Main": 9350,
      "gt": 9351,
      "KI": 9352,
      "wrong": 9353,
      "every": 9354,
      "773": 9355,
      "CX": 9356,
      "Cer": 9357,
      "kill": 9358,
      "960": 9359,
      "SESSION": 9360,
      "affecting": 9361,
      "Spoof": 9362,
      "vey": 9363,
      "vl": 9364,
      "system32": 9365,
      "Unable": 9366,
      "ox": 9367,
      "orm": 9368,
      "suite": 9369,
      "Exper": 9370,
      "administration": 9371,
      "watchOS": 9372,
      "4x": 9373,
      "LY": 9374,
      "615": 9375,
      "JJ": 9376,
      "_3": 9377,
      "rust": 9378,
      "idef": 9379,
      "Imp": 9380,
      "La": 9381,
      "99999999": 9382,
      "TOTOLINK": 9383,
      "\"--": 9384,
      "UB": 9385,
      "asci": 9386,
      "----------------------------------------": 9387,
      "Virus": 9388,
      "idefense": 9389,
      "cxf": 9390,
      "tpl": 9391,
      "Connected": 9392,
      "resolve": 9393,
      "thelp": 9394,
      "Elementor": 9395,
      "car": 9396,
      "total": 9397,
      "netlink": 9398,
      "generic": 9399,
      "FORMAT": 9400,
      "gA": 9401,
      "c03": 9402,
      "dp": 9403,
      "_replace": 9404,
      "Templ": 9405,
      "Proper": 9406,
      "gw": 9407,
      "asser": 9408,
      "Universal": 9409,
      "GA": 9410,
      "brains": 9411,
      "683": 9412,
      "());": 9413,
      "CORE": 9414,
      "RSA": 9415,
      "mbol": 9416,
      "FR": 9417,
      "asy": 9418,
      "INFO": 9419,
      "jetbrains": 9420,
      "wifi": 9421,
      "201406": 9422,
      "Delete": 9423,
      "S3": 9424,
      "+=\"\\": 9425,
      "OpenSSL": 9426,
      "remo": 9427,
      "Chains": 9428,
      "allocation": 9429,
      "assign": 9430,
      "IB": 9431,
      "googlesource": 9432,
      "JECT": 9433,
      "mod_": 9434,
      "custhelp": 9435,
      "customer": 9436,
      "/~": 9437,
      "535": 9438,
      "Sim": 9439,
      "0x27": 9440,
      "Laboratory": 9441,
      "`,": 9442,
      "small": 9443,
      "Consult": 9444,
      "important": 9445,
      "Metasploit3": 9446,
      "Dir": 9447,
      "653": 9448,
      "substr": 9449,
      "unisoc": 9450,
      "syn": 9451,
      "Em": 9452,
      "Hash": 9453,
      "s_addr": 9454,
      "V100": 9455,
      "INET": 9456,
      "circ": 9457,
      "flu": 9458,
      "CCCC": 9459,
      "actor": 9460,
      "R_": 9461,
      "legit": 9462,
      "reboot": 9463,
      "BlockChains": 9464,
      "BlockChainsSecurity": 9465,
      "515": 9466,
      "FUE": 9467,
      "wl": 9468,
      "strings": 9469,
      "tc": 9470,
      "896": 9471,
      "regex": 9472,
      "harmony": 9473,
      "0x96": 9474,
      "760": 9475,
      "general": 9476,
      "1X": 9477,
      "Identity": 9478,
      "Difficult": 9479,
      "Mat": 9480,
      "_address": 9481,
      "vu": 9482,
      "Permissions": 9483,
      ":+": 9484,
      "Hacker": 9485,
      "JSON": 9486,
      "feb": 9487,
      "Could": 9488,
      "capt": 9489,
      "nah": 9490,
      "sin_family": 9491,
      "umb": 9492,
      "returned": 9493,
      "MSM89": 9494,
      "mut": 9495,
      "geo": 9496,
      "achieve": 9497,
      "10000": 9498,
      "olation": 9499,
      "create_": 9500,
      "atlassian": 9501,
      "ANDLE": 9502,
      "DT": 9503,
      "secy": 9504,
      "Discovery": 9505,
      "announcementDetail": 9506,
      "vpn": 9507,
      "warr": 9508,
      "536": 9509,
      "lif": 9510,
      "SOCKET": 9511,
      "uploading": 9512,
      "----------------------------------------------------------------------------------------": 9513,
      "Mz": 9514,
      "design": 9515,
      "Comput": 9516,
      "URLs": 9517,
      "owner": 9518,
      "fetch": 9519,
      "651": 9520,
      "Persistent": 9521,
      "554": 9522,
      "Crash": 9523,
      "rop_": 9524,
      "flush": 9525,
      "nec": 9526,
      "step": 9527,
      "widget": 9528,
      "rpc": 9529,
      "reve": 9530,
      "digital": 9531,
      "imedia": 9532,
      "644": 9533,
      "SESSID": 9534,
      "gan": 9535,
      "0x3C": 9536,
      "io_": 9537,
      "560": 9538,
      "UserAgent": 9539,
      "...\"": 9540,
      "amo": 9541,
      "WiFi": 9542,
      "phpMy": 9543,
      "BID": 9544,
      "vs": 9545,
      "ron": 9546,
      "Profile": 9547,
      "_SIZE": 9548,
      "sudo": 9549,
      "callback": 9550,
      "FLE": 9551,
      "0x98": 9552,
      "Invalid": 9553,
      "features": 9554,
      "VULN": 9555,
      "'%": 9556,
      "xcxc": 9557,
      "570": 9558,
      "dashboard": 9559,
      "gad": 9560,
      "Parsing": 9561,
      "xdocs": 9562,
      "ibility": 9563,
      "codec": 9564,
      "pose": 9565,
      "gateway": 9566,
      "communication": 9567,
      "~*~*~*~*": 9568,
      "Embedded": 9569,
      "Nexus": 9570,
      "ather": 9571,
      "20Management": 9572,
      "''''": 9573,
      "=======================": 9574,
      "gif": 9575,
      "Transfer": 9576,
      "!!!!!!!!": 9577,
      "appropri": 9578,
      "warrant": 9579,
      "_host": 9580,
      "MS16": 9581,
      "fclose": 9582,
      "OX": 9583,
      "infinite": 9584,
      "fputs": 9585,
      "763": 9586,
      "Location": 9587,
      "Gl": 9588,
      "8B": 9589,
      "calling": 9590,
      "themes": 9591,
      "Community": 9592,
      "wird": 9593,
      ",,\"": 9594,
      "SIG": 9595,
      "AIR": 9596,
      "pet": 9597,
      "Forms": 9598,
      "paths": 9599,
      "egg": 9600,
      "granted": 9601,
      "NN": 9602,
      "OU": 9603,
      "ups": 9604,
      "PeopleTools": 9605,
      "demo": 9606,
      "852": 9607,
      "Requests": 9608,
      "200606": 9609,
      "ICAg": 9610,
      "ftpd": 9611,
      "wikimedia": 9612,
      "Complete": 9613,
      "Dereference": 9614,
      "freeb": 9615,
      "nicht": 9616,
      "enu": 9617,
      "094": 9618,
      "ada": 9619,
      "Under": 9620,
      "Social": 9621,
      "574": 9622,
      "ALPS": 9623,
      "_for_": 9624,
      "523": 9625,
      "Desk": 9626,
      "bea": 9627,
      "msg00009": 9628,
      "BASE": 9629,
      "Classic": 9630,
      "soap": 9631,
      "782": 9632,
      "Addition": 9633,
      "955": 9634,
      "concept": 9635,
      "663": 9636,
      "/\"": 9637,
      "606": 9638,
      "0xc0": 9639,
      "symantec": 9640,
      "771": 9641,
      "executing": 9642,
      "Spoofing": 9643,
      "ding": 9644,
      "TIB": 9645,
      "639": 9646,
      "Mi": 9647,
      "TION": 9648,
      "092": 9649,
      "neider": 9650,
      "gethostbyname": 9651,
      "LS": 9652,
      "883": 9653,
      "until": 9654,
      "r0": 9655,
      "_from": 9656,
      "ji": 9657,
      "mx": 9658,
      "Security_": 9659,
      "wrap": 9660,
      "alive": 9661,
      "Glob": 9662,
      "rax": 9663,
      "idia": 9664,
      "ema": 9665,
      "dissec": 9666,
      "partic": 9667,
      "cleanup": 9668,
      "programs": 9669,
      "700": 9670,
      "GF": 9671,
      "OUT": 9672,
      "added": 9673,
      "Adap": 9674,
      "mint": 9675,
      "combin": 9676,
      "HT2": 9677,
      "scn": 9678,
      "JCQk": 9679,
      "623": 9680,
      "nvidia": 9681,
      "built": 9682,
      "pap": 9683,
      "v8": 9684,
      "ctl": 9685,
      "quotes": 9686,
      "Disable": 9687,
      "[][]": 9688,
      "codester": 9689,
      "scope": 9690,
      "024": 9691,
      "loss": 9692,
      "VOID": 9693,
      "exploiting": 9694,
      "Cyber": 9695,
      "Hospit": 9696,
      "RL": 9697,
      "201909": 9698,
      "1005": 9699,
      "781": 9700,
      "EBX": 9701,
      "ao": 9702,
      "reload": 9703,
      "584": 9704,
      "_l": 9705,
      "oom": 9706,
      "Middle": 9707,
      "TIBCO": 9708,
      "jul": 9709,
      "664": 9710,
      "Devices": 9711,
      "19729": 9712,
      "S1": 9713,
      "[])": 9714,
      "7D": 9715,
      "Flag": 9716,
      "MAP": 9717,
      "_D": 9718,
      "jac": 9719,
      "571": 9720,
      "trendmicro": 9721,
      "legitimate": 9722,
      "BLE": 9723,
      "eval": 9724,
      "erved": 9725,
      "child": 9726,
      "conv": 9727,
      "Bridge": 9728,
      "ann": 9729,
      "Inj": 9730,
      "093": 9731,
      "32k": 9732,
      "Checking": 9733,
      "Import": 9734,
      "msg00011": 9735,
      "Hospitality": 9736,
      "Revision": 9737,
      "hijacking": 9738,
      "rate": 9739,
      "whether": 9740,
      "Sever": 9741,
      "200605": 9742,
      "wb": 9743,
      "craft": 9744,
      "freebsd": 9745,
      "hc": 9746,
      "p2": 9747,
      "navig": 9748,
      "heet": 9749,
      "200608": 9750,
      "Foxit": 9751,
      "secret": 9752,
      "Infrastructure": 9753,
      "ing_": 9754,
      "BT": 9755,
      "bel": 9756,
      "cases": 9757,
      "serve": 9758,
      "covery": 9759,
      "prep": 9760,
      "PO3": 9761,
      "Protect": 9762,
      "025": 9763,
      "slash": 9764,
      "ualization": 9765,
      "YY": 9766,
      "strcpy": 9767,
      "Tomcat": 9768,
      "TA06": 9769,
      "inger": 9770,
      ",'": 9771,
      "28817": 9772,
      "abric": 9773,
      "var_": 9774,
      "2D": 9775,
      "ilities": 9776,
      "changelogs": 9777,
      "Result": 9778,
      "!\"": 9779,
      "519": 9780,
      "Sql": 9781,
      "792": 9782,
      "NetBSD": 9783,
      "_NAME": 9784,
      "TYPO3": 9785,
      "EXP": 9786,
      "resh": 9787,
      "1337": 9788,
      "STR": 9789,
      "S7": 9790,
      "Url": 9791,
      "esktop": 9792,
      "servlet": 9793,
      "YXFUE": 9794,
      "q3": 9795,
      "PHPSESSID": 9796,
      "673": 9797,
      "R7": 9798,
      "latent": 9799,
      "Small": 9800,
      "Forti": 9801,
      "+\"": 9802,
      "930": 9803,
      "S4": 9804,
      "SX": 9805,
      "860": 9806,
      "Sys": 9807,
      "hook": 9808,
      "Ware": 9809,
      "|.": 9810,
      "BI": 9811,
      "553": 9812,
      "Sum": 9813,
      "WM": 9814,
      "cloudapps": 9815,
      "ATE": 9816,
      "4096": 9817,
      ":::": 9818,
      "RG": 9819,
      "btr": 9820,
      "freedesktop": 9821,
      "unbekannter": 9822,
      "Php": 9823,
      "dabei": 9824,
      "ren": 9825,
      "dead": 9826,
      "581": 9827,
      "691": 9828,
      "951": 9829,
      "Order": 9830,
      "\"),": 9831,
      "0x82": 9832,
      "573": 9833,
      "releas": 9834,
      "Graphics": 9835,
      "STDIN": 9836,
      "E6": 9837,
      "988": 9838,
      "_PATH": 9839,
      "q4": 9840,
      "\"></": 9841,
      "968": 9842,
      "Proc": 9843,
      "codeaurora": 9844,
      "matrix": 9845,
      "Industrial": 9846,
      "Fixed": 9847,
      "Ubuntu": 9848,
      "Audio": 9849,
      "Tel": 9850,
      "yo": 9851,
      "ales": 9852,
      "552": 9853,
      "otal": 9854,
      "experience": 9855,
      "ivity": 9856,
      "561": 9857,
      "target_uri": 9858,
      "hf": 9859,
      "invo": 9860,
      "Professional": 9861,
      "park": 9862,
      "662": 9863,
      "893": 9864,
      "Encryp": 9865,
      "runs": 9866,
      "548": 9867,
      "ATCH": 9868,
      "SMTP": 9869,
      ";\"": 9870,
      "F0": 9871,
      "ario": 9872,
      "SERVIC": 9873,
      "Bluetooth": 9874,
      "utor": 9875,
      "991": 9876,
      "Parser": 9877,
      "views": 9878,
      "_server": 9879,
      "unrestricted": 9880,
      "D4": 9881,
      "rog": 9882,
      "stage": 9883,
      "EDI": 9884,
      "Trend": 9885,
      "msg00015": 9886,
      "ley": 9887,
      "UA": 9888,
      "claim": 9889,
      "}:#{": 9890,
      "026": 9891,
      "510": 9892,
      "0x000000": 9893,
      "1001": 9894,
      "'].": 9895,
      "appropriate": 9896,
      "0000000000": 9897,
      "850": 9898,
      "squid": 9899,
      "894": 9900,
      "bably": 9901,
      "had": 9902,
      "fort": 9903,
      "984": 9904,
      "Med": 9905,
      "group_id": 9906,
      "'}": 9907,
      "871": 9908,
      "*/*;": 9909,
      "Zero": 9910,
      "wm": 9911,
      "0x51": 9912,
      "aluigi": 9913,
      "phy": 9914,
      "panic": 9915,
      "IH": 9916,
      "embedded": 9917,
      "Dangerous": 9918,
      "bco": 9919,
      "784": 9920,
      "sanitized": 9921,
      "unescape": 9922,
      "publication": 9923,
      "GRO": 9924,
      "_str": 9925,
      "chars": 9926,
      "619": 9927,
      "MK": 9928,
      "phony": 9929,
      ">\";": 9930,
      "uruk": 9931,
      "Compute": 9932,
      "DOM": 9933,
      "bookkeeper": 9934,
      "loading": 9935,
      "commitdiff": 9936,
      "_query": 9937,
      "strcat": 9938,
      "661": 9939,
      "0xE7": 9940,
      "DDDDDDDDDDDDDDDD": 9941,
      "X11": 9942,
      "wg": 9943,
      "userid": 9944,
      "590": 9945,
      "Privileges": 9946,
      "broad": 9947,
      "530": 9948,
      "olution": 9949,
      "automatic": 9950,
      "636": 9951,
      "Die": 9952,
      "erver": 9953,
      "afka": 9954,
      "ram": 9955,
      "20160": 9956,
      "Novell": 9957,
      "ATION": 9958,
      "525": 9959,
      "ham": 9960,
      "construct": 9961,
      "background": 9962,
      "_work": 9963,
      "folio": 9964,
      "529": 9965,
      "963": 9966,
      "'',": 9967,
      "AQ": 9968,
      "G5": 9969,
      "ntp": 9970,
      "MDM96": 9971,
      "foxitsoftware": 9972,
      "disconnect": 9973,
      "Enable": 9974,
      "Feature": 9975,
      "fully": 9976,
      "xl": 9977,
      "plaintext": 9978,
      "c04": 9979,
      "0212": 9980,
      "SUC": 9981,
      "762": 9982,
      "twcert": 9983,
      "Current": 9984,
      "UX": 9985,
      "_token": 9986,
      "bi": 9987,
      "0x0a": 9988,
      "runtime": 9989,
      "%!": 9990,
      "981": 9991,
      "853": 9992,
      "Banking": 9993,
      "JCQkJCQk": 9994,
      ">/": 9995,
      "suff": 9996,
      "TIME": 9997,
      "attempt": 9998,
      ">*>*>*>*>*>*>*>*>*>*>*>*>*>*>*>*>*>*>*>*>*>*>*>*>*>*>*>*>*>*>*>*>*>*>*>*>*>*>*>*>*>*>*>*>*>*>*>*>*>*>*>*>*>*>*>*>*>*>*>*>*>*>*>*>*>*>*>*>*>*>*>*>*>*>*>*>*>*>*>*>*>*>*>*>*>*>*>*>*>*>*>*>*>*>*>*>*>*>*>*>*>*>*>*>*>*>*>*>*>*>*>*>*>*>*>*>*>*>*>*>*>*>*>*>*>*>*>*": 9999,
      "alth": 10000,
      "20050": 10001,
      "fork": 10002,
      "firefox": 10003,
      "RX": 10004,
      "c68": 10005,
      "522": 10006,
      "C4": 10007,
      "Hyper": 10008,
      "fast": 10009,
      "urukul": 10010,
      "7B": 10011,
      "RSS": 10012,
      "Design": 10013,
      "ialog": 10014,
      "changed": 10015,
      "hostscript": 10016,
      "Min": 10017,
      "np": 10018,
      "sanitise": 10019,
      "receive": 10020,
      "VA": 10021,
      "}}": 10022,
[...]
